<unk>	0
।	-2.99616
,	-3.87519
को	-4.13746
▁र	-4.18724
▁छ	-4.24944
मा	-4.69014
ले	-4.75595
▁पनि	-4.82965
का	-4.84246
लाई	-5.20597
▁भएको	-5.21807
▁छन्	-5.31332
▁हो	-5.4057
▁लागि	-5.49381
▁गरेको	-5.50526
▁भने	-5.58046
▁गर्न	-5.60016
▁गर्ने	-5.6004
▁तथा	-5.72129
▁‘	-5.72859
▁थियो	-5.74793
▁यो	-5.86777
▁नै	-5.91164
बाट	-5.94587
▁एक	-5.96164
▁हुने	-6.00278
–	-6.02378
▁तर	-6.04273
▁रहेको	-6.05426
▁नेपाल	-6.15908
’	-6.21392
.	-6.21886
▁गरेका	-6.23624
▁थिए	-6.26128
▁नेपाली	-6.28543
▁काम	-6.30523
▁भन्ने	-6.35259
▁गरिएको	-6.35474
▁उनले	-6.38347
▁गरी	-6.4567
)	-6.47732
▁हुन्छ	-6.47769
▁(	-6.49256
▁त	-6.51708
▁गर्दै	-6.5397
▁आफ्नो	-6.54389
▁मा	-6.55048
▁हुन	-6.56647
▁भएका	-6.57819
▁केही	-6.58986
▁को	-6.61028
▁हजार	-6.61238
▁दिन	-6.61411
▁छैन	-6.62349
▁कुरा	-6.67144
▁मात्र	-6.71851
▁यस	-6.72608
▁दुई	-6.74032
▁कारण	-6.74774
▁कुनै	-6.75176
▁सबै	-6.75514
▁समेत	-6.75829
▁रुपमा	-6.77543
▁वा	-6.78624
▁धेरै	-6.8082
▁अध्यक्ष	-6.82714
▁अहिले	-6.8346
▁हुन्	-6.8421
▁बताए	-6.86717
▁जानकारी	-6.86984
▁निर्माण	-6.86998
हरु	-6.87152
▁नयाँ	-6.87286
▁गरेर	-6.8815
▁१	-6.88532
▁म	-6.89867
▁स्थानीय	-6.90059
▁विकास	-6.90271
▁प्रमुख	-6.90521
▁लाख	-6.9172
▁अनुसार	-6.92235
▁भए	-6.92412
▁आएको	-6.93052
सँग	-6.93173
▁त्यो	-6.93799
▁सय	-6.93984
▁सरकारले	-6.94
▁२	-6.95539
▁जिल्ला	-6.95627
▁वर्ष	-6.96052
▁बढी	-6.98483
▁गरे	-6.99806
▁काठमाडौं	-7.00541
-	-7.01776
▁भयो	-7.02539
▁विभिन्न	-7.02824
▁प्रहरी	-7.03145
▁के	-7.03252
न	-7.04198
ी	-7.06319
▁एउटा	-7.08131
▁पहिलो	-7.09629
▁गर्दा	-7.09785
▁?	-7.09899
▁रहेका	-7.10308
▁’	-7.104
कै	-7.11903
▁आर्थिक	-7.12298
हरू	-7.12882
▁प्रदेश	-7.12958
▁आज	-7.13042
▁समय	-7.13593
े	-7.14996
▁३	-7.15654
▁प्रधानमन्त्री	-7.15827
▁भन्दै	-7.16028
▁उनी	-7.16749
▁उक्त	-7.16869
▁कार्यक्रम	-7.16962
▁रूपमा	-7.18157
▁“	-7.18402
▁उनको	-7.19305
▁५	-7.20157
▁हामी	-7.21047
▁राष्ट्रिय	-7.21268
▁क्षेत्रमा	-7.21833
▁भनेर	-7.21865
▁समस्या	-7.25085
▁गते	-7.2596
▁जना	-7.26003
र	-7.26485
▁अन्य	-7.26622
▁अब	-7.26755
▁तीन	-7.28366
▁सेवा	-7.28859
की	-7.29203
▁व्यवस्था	-7.29247
▁भन्दा	-7.29342
▁१०	-7.29458
▁दिने	-7.298
ा	-7.29966
▁सरकार	-7.3161
▁प्रयोग	-7.33463
▁घर	-7.34891
▁६	-7.35167
▁सो	-7.35579
▁सहयोग	-7.36614
▁कि	-7.36632
▁करोड	-7.37245
▁राजनीतिक	-7.3768
▁नेपालको	-7.38275
▁सार्वजनिक	-7.38845
▁पार्टी	-7.39044
▁४	-7.39048
▁गर्नु	-7.39257
▁दिएको	-7.40341
देखि	-7.42243
▁होइन	-7.42817
ै	-7.43673
▁सुरु	-7.44398
▁प्रतिशत	-7.44648
▁हाम्रो	-7.44676
▁कार्यालय	-7.44903
▁आयोजना	-7.4536
▁अघि	-7.46714
▁पर्ने	-7.46976
▁न	-7.47488
▁निर्वाचन	-7.48065
▁का	-7.48394
▁निर्णय	-7.49436
सम्म	-7.49686
▁ठूलो	-7.49788
▁डा	-7.50473
▁सम्पन्न	-7.50501
▁देखि	-7.50741
▁प्राप्त	-7.5098
▁यस्तो	-7.51007
▁जनाएको	-7.51172
▁कार्यक्रममा	-7.51441
▁नेपालमा	-7.51839
▁मैले	-7.54319
▁मात्रै	-7.54347
▁आएका	-7.54562
▁स्वास्थ्य	-7.5459
▁'	-7.54868
▁नेता	-7.5527
▁मेरो	-7.55606
▁महिला	-7.5567
▁वटा	-7.5636
▁अवस्था	-7.57937
▁माग	-7.58877
क	-7.5916
▁रुपैयाँ	-7.59177
▁क्रममा	-7.59422
▁क्षेत्र	-7.5948
मै	-7.59615
▁हामीले	-7.60046
▁पटक	-7.60599
▁राम्रो	-7.6092
▁बनाउन	-7.60932
▁अर्को	-7.61171
▁लागेको	-7.6119
▁आवश्यक	-7.61716
▁साथै	-7.62145
▁पछि	-7.62365
▁सामाजिक	-7.62734
▁दिए	-7.62842
भन्दा	-7.62976
▁भएर	-7.63551
पछि	-7.6384
▁सडक	-7.63953
▁गएको	-7.63997
▁अनि	-7.64701
▁	-7.64913
▁यी	-7.65254
▁सदस्य	-7.65307
▁७	-7.65324
▁कम	-7.66165
▁अवस्थामा	-7.6623
▁सञ्चालन	-7.67023
/	-7.67057
▁बेला	-7.67496
▁सन्	-7.67981
▁विषयमा	-7.67982
स	-7.68128
▁परेको	-7.6861
▁साथ	-7.69742
समेत	-7.70169
▁बनाउने	-7.70334
्	-7.70859
▁संविधान	-7.71115
▁अगाडि	-7.71459
▁योजना	-7.71843
▁ती	-7.72213
▁उहाँले	-7.72275
▁आउने	-7.72434
ु	-7.72688
हरुको	-7.72991
▁गत	-7.73015
▁जारी	-7.73031
▁यसको	-7.7326
▁रकम	-7.73449
▁नाम	-7.73715
▁थप	-7.73726
▁भारतीय	-7.74054
▁१५	-7.74272
▁शिक्षा	-7.7446
▁रु	-7.74657
▁उत्पादन	-7.75082
▁हुँदा	-7.75502
म	-7.76039
▁निकै	-7.76291
▁जाने	-7.7666
▁चार	-7.77205
▁हुनेछ	-7.77497
▁सकिन्छ	-7.78467
▁दोस्रो	-7.78489
▁८	-7.7861
▁प्रहरीले	-7.78775
▁नगरपालिका	-7.79046
▁भएकाले	-7.79474
▁तयार	-7.79637
▁,	-7.79703
▁१२	-7.79763
▁समयमा	-7.79903
▁मन	-7.79968
▁मलाई	-7.80112
▁बताउनुभयो	-7.80686
▁२०	-7.80819
▁भएपछि	-7.8086
▁भइरहेको	-7.81482
सँगै	-7.81841
▁मृत्यु	-7.8207
▁–	-7.82199
▁कार्य	-7.8228
▁पाँच	-7.82333
▁उल्लेख	-7.82799
▁हुँदै	-7.82943
▁९	-7.83135
▁खर्च	-7.84199
▁सक्ने	-7.84246
▁मन्त्री	-7.84618
▁वडा	-7.84746
▁काठमाडौँ	-7.84762
▁सक्छ	-7.85826
▁सफल	-7.86028
▁त्यसैले	-7.86888
▁लगानी	-7.87734
▁पूर्व	-7.88206
▁लिएर	-7.88588
ल	-7.8884
ि	-7.8957
▁जस्तो	-7.89639
स्थित	-7.89828
▁ले	-7.89996
▁जुन	-7.90611
▁पक्राउ	-7.90998
▁विशेष	-7.91486
▁११	-7.91568
▁मुख्य	-7.91863
▁घोषणा	-7.92058
▁सरकारी	-7.92282
माथि	-7.92286
▁खेल	-7.9251
हरुले	-7.92726
▁लामो	-7.93361
▁बताएका	-7.9367
'	-7.93907
▁देखिन्छ	-7.94245
▁देश	-7.94511
ँ	-7.9467
▁दिएका	-7.94878
▁”	-7.95317
सहित	-7.95401
▁सबैभन्दा	-7.95741
▁गर्नुपर्ने	-7.96392
▁पुगेको	-7.96687
▁त्यस्तै	-7.9677
▁हरेक	-7.9698
▁आधारमा	-7.97095
▁५०	-7.9728
▁गरिने	-7.97337
▁छलफल	-7.9759
▁माओवादी	-7.97677
▁यही	-7.97857
▁भारत	-7.98555
▁सरकारको	-7.99039
:	-7.99274
▁त्यसको	-7.99647
▁पानी	-7.99861
▁प्रदान	-7.99892
▁समिति	-8.00416
▁छु	-8.00435
▁कसरी	-8.00544
▁उच्च	-8.0081
▁अर्ब	-8.00861
▁गीत	-8.00893
▁अधिकार	-8.01088
▁आफ्ना	-8.01104
▁बनेको	-8.01172
▁तयारी	-8.01309
,’	-8.01557
▁यहाँ	-8.01615
▁एवं	-8.01846
हरूको	-8.01858
▁कृषि	-8.02203
▁२५	-8.02217
▁नीति	-8.0254
▁सुरक्षा	-8.03256
▁पूरा	-8.03493
▁उनलाई	-8.03547
▁यस्तै	-8.03773
▁बारेमा	-8.04323
▁विषय	-8.04512
▁त्यही	-8.04595
▁करिब	-8.04728
यो	-8.04832
▁देखिएको	-8.0528
▁अन्तर्राष्ट्रिय	-8.05323
▁पत्रकार	-8.05401
▁केन्द्र	-8.05591
▁लिन	-8.05629
हरुलाई	-8.05704
▁गाउँपालिका	-8.05912
▁पछिल्लो	-8.05968
बारे	-8.06047
▁अध्ययन	-8.06087
▁सम्म	-8.06812
ता	-8.07246
▁गर्छ	-8.07693
▁थाहा	-8.08041
▁यस्ता	-8.08193
▁किन	-8.08621
▁स्थापना	-8.08665
▁होला	-8.08687
▁नेपालले	-8.09345
▁आफ्नै	-8.09447
▁नं	-8.09609
▁:	-8.10299
▁यसले	-8.10363
छ	-8.10384
¥	-8.10625
▁राष्ट्रपति	-8.11103
▁बजार	-8.11522
▁आगामी	-8.11539
▁सहभागी	-8.1156
▁राष्ट्र	-8.11584
▁भनेको	-8.11718
▁खेलमा	-8.11912
▁३०	-8.12024
▁पैसा	-8.12048
▁हुँदैन	-8.12166
▁पाउने	-8.12233
▁जीवन	-8.1242
▁परेका	-8.12573
▁दुवै	-8.12728
▁नम्बर	-8.12766
▁युवा	-8.13067
▁कर	-8.13088
▁नभएको	-8.13589
▁केन्द्रीय	-8.13849
▁मूल्य	-8.14245
▁व्यवस्थापन	-8.1475
▁हाल	-8.14905
ं	-8.14941
▁उपलब्ध	-8.14976
▁परिवर्तन	-8.14985
▁बजेट	-8.15021
▁पर्छ	-8.15104
▁अनुसन्धान	-8.15195
▁अन्तिम	-8.15502
हरूले	-8.15755
▁चलचित्र	-8.16148
▁त्यस	-8.16304
▁विश्व	-8.16419
▁अझै	-8.16606
▁वर्षको	-8.16884
▁सूचना	-8.17005
प्रति	-8.17225
▁गठन	-8.17605
▁उपचार	-8.17822
▁नागरिक	-8.17832
▁बढेको	-8.17879
▁विश्वास	-8.18465
▁१४	-8.18891
▁हुनु	-8.19121
▁स्थानमा	-8.19333
▁बन्द	-8.1964
▁शुरु	-8.20184
▁नेपालका	-8.20776
त	-8.20789
▁छैनन्	-8.20797
▁उद्योग	-8.21147
▁१८	-8.21649
▁नेकपा	-8.22131
▁छौं	-8.22175
▁बजारमा	-8.2234
▁छन	-8.22399
▁प्रस्तुत	-8.22526
▁दर्ता	-8.23048
▁सम्बन्ध	-8.23321
▁१३	-8.23542
▁त्यसपछि	-8.23601
▁ठाउँमा	-8.23851
▁गरि	-8.23996
▁आग्रह	-8.241
▁बाहिर	-8.24113
▁गरिरहेको	-8.24564
▁बिहान	-8.24647
▁भूमिका	-8.25128
▁थिएन	-8.25307
▁नि	-8.2559
▁एमाले	-8.25821
▁कति	-8.25903
▁हुन्छन्	-8.26307
▁मत	-8.26308
▁जान	-8.26318
▁बाँकी	-8.26646
▁भनाइ	-8.26862
▁घरमा	-8.26985
▁जनताको	-8.27346
ो	-8.27417
▁महिना	-8.27764
▁यसरी	-8.28162
▁आ	-8.28352
▁शर्मा	-8.28414
▁कर्मचारी	-8.2859
▁सहमति	-8.28838
▁त्यहाँ	-8.28891
▁संयुक्त	-8.29107
▁पोखरा	-8.29177
▁पर्यटन	-8.29333
▁निर्देशन	-8.29664
▁नेतृत्व	-8.29677
▁सामान्य	-8.2989
▁समाज	-8.30006
१	-8.30071
▁प्रक्रिया	-8.30076
▁ध्यान	-8.30347
▁फरक	-8.30741
▁प्रस्ताव	-8.30777
▁नहुने	-8.30814
▁प्रवेश	-8.30855
▁अधिकारी	-8.3139
▁सम्भावना	-8.31569
▁उनका	-8.31675
▁जिल्लामा	-8.32006
▁१६	-8.32035
▁-	-8.3215
▁सम्मान	-8.3232
▁संघ	-8.32452
▁बाटो	-8.32476
▁वितरण	-8.32479
▁बाट	-8.32533
▁गोल	-8.32574
▁अस्पताल	-8.33075
▁गरिरहेका	-8.3392
▁यसअघि	-8.34155
▁सम्झौता	-8.34201
▁व्यक्त	-8.34205
▁आरोप	-8.34296
▁घटना	-8.34472
▁गर्छन्	-8.34553
▁दिनुभयो	-8.34639
▁समाचार	-8.3478
▁भन्छन्	-8.34851
▁प्रयास	-8.35064
▁बस्ने	-8.35105
▁जस्ता	-8.35346
▁हत्या	-8.35366
मध्ये	-8.35929
▁आफू	-8.35966
▁गरेपछि	-8.36127
▁सचिव	-8.362
▁बैंक	-8.366
▁कार्यान्वयन	-8.37
▁कायम	-8.37148
लगायत	-8.37257
▁भन्नुभयो	-8.37282
▁पहिले	-8.37329
▁यसलाई	-8.37431
▁फिल्म	-8.37481
▁अमेरिकी	-8.37495
▁राज्य	-8.37577
▁थापा	-8.37653
▁हात	-8.37679
▁विद्यालय	-8.38182
▁सकेको	-8.38225
▁व्यक्ति	-8.38259
▁संस्था	-8.38394
बीच	-8.38565
▁नाममा	-8.38598
▁फेरि	-8.38659
▁गर्नुभएको	-8.38833
▁सकिने	-8.3887
▁बन्न	-8.39001
▁विद्यार्थी	-8.39415
▁१९	-8.40211
▁लिएको	-8.40291
▁ऐन	-8.40347
तर्फ	-8.40372
▁बैठक	-8.40518
▁रहने	-8.40551
▁देशको	-8.40562
▁दल	-8.40693
▁लिने	-8.40936
▁थालेको	-8.41069
▁कतिपय	-8.41186
▁अ	-8.41325
▁अवसर	-8.41756
”	-8.41771
▁२१	-8.41806
▁लगायतका	-8.41908
▁जस्तै	-8.41951
▁लाग्ने	-8.42152
▁बनाएको	-8.42523
▁१७	-8.42589
▁अरु	-8.42719
प	-8.42773
▁संख्या	-8.42939
▁सहज	-8.43049
▁शक्ति	-8.4305
▁कात्तिक	-8.43065
▁भई	-8.43161
▁प्रश्न	-8.43165
▁गर्नुपर्छ	-8.43176
▁राख्ने	-8.43371
▁महत्वपूर्ण	-8.43998
▁क्षेत्रको	-8.44375
द्वारा	-8.44433
▁पु	-8.44608
▁बताउँछन्	-8.44694
▁श्रेष्ठ	-8.44884
▁लाग्छ	-8.44961
▁कांग्रेस	-8.45029
▁गरिन्छ	-8.45281
▁संघीय	-8.45697
▁निर्देशक	-8.45832
▁वातावरण	-8.45868
▁यसमा	-8.46049
▁जोड	-8.46069
▁तेस्रो	-8.46339
▁मुद्दा	-8.46471
▁सोमबार	-8.46613
▁अर्थ	-8.47143
▁अधिकृत	-8.47429
▁अवसरमा	-8.47481
▁गराउने	-8.47609
▁कम्पनी	-8.47669
२	-8.47744
▁शान्ति	-8.48014
▁जसले	-8.48101
▁देशमा	-8.48415
▁सहित	-8.48522
▁निजी	-8.48545
व	-8.48602
▁लक्ष्य	-8.48616
▁सम्बन्धित	-8.48872
▁सोही	-8.48885
▁ओलीले	-8.49858
▁गाउँ	-8.49914
▁भारतको	-8.50007
▁सात	-8.50316
▁सुधार	-8.50347
▁वृद्धि	-8.50368
▁जनता	-8.50375
▁बस	-8.50808
▁जो	-8.50884
▁आउन	-8.50977
▁२२	-8.51125
हरूलाई	-8.51125
▁२४	-8.51459
▁शुक्रबार	-8.51501
▁बनाएर	-8.51644
▁समूह	-8.51849
▁व्यापार	-8.51941
▁बुधबार	-8.51986
▁सवारी	-8.51995
▁गराउन	-8.52169
▁चुनाव	-8.52249
▁उत्तर	-8.52557
▁पूर्ण	-8.52764
▁अभियान	-8.52802
▁सम्पूर्ण	-8.52959
▁चर्चा	-8.53077
भित्र	-8.53199
▁सुविधा	-8.53359
▁कानुन	-8.53373
▁आइतबार	-8.53526
▁दाबी	-8.53712
▁दक्षिण	-8.53783
तिर	-8.53862
▁विदेशी	-8.53973
▁जति	-8.54034
▁बिक्री	-8.54056
▁जिम्मेवारी	-8.54117
▁केपी	-8.54189
▁पाएको	-8.54304
▁बजे	-8.54437
मार्फत	-8.54476
?	-8.55049
▁दैनिक	-8.55188
▁असोज	-8.55322
▁असार	-8.55332
▁भित्र	-8.55424
▁आफूलाई	-8.55474
▁या	-8.55616
▁अहिलेसम्म	-8.55633
▁रहेछ	-8.55645
▁चीन	-8.55777
सम्बन्धी	-8.55821
▁संरक्षण	-8.55934
▁कम्पनीले	-8.56023
▁भदौ	-8.56063
▁आवश्यकता	-8.56239
▁ओली	-8.56311
▁जे	-8.56518
▁गर्नुभयो	-8.56647
▁समितिले	-8.57116
▁लगायत	-8.57372
▁प्रति	-8.57384
▁वर्षीय	-8.57529
▁बर्ष	-8.5757
▁राख्न	-8.57662
▁४०	-8.57728
▁राखेर	-8.5781
▁जग्गा	-8.58076
▁आमा	-8.58219
न्	-8.58339
▁नगर	-8.58456
▁अफ	-8.58486
▁आन्दोलन	-8.58521
▁उसले	-8.58731
▁मानव	-8.58793
▁शनिबार	-8.58918
▁भइसकेको	-8.58927
▁एकता	-8.59023
▁जनाको	-8.59468
▁भवन	-8.59496
▁आधार	-8.5965
▁प्रत्येक	-8.59714
▁सम्बोधन	-8.5972
▁भाषा	-8.59792
▁यति	-8.59799
▁त्यसलाई	-8.59857
ने	-8.59903
▁भाग	-8.60085
▁सुन	-8.60104
▁२८	-8.60246
▁राजधानी	-8.60291
▁अझ	-8.60355
राज	-8.60675
▁बसेको	-8.61053
▁घाइते	-8.61055
▁भन्न	-8.61068
▁वन	-8.61085
▁त्यस्तो	-8.6133
▁ज्यान	-8.61474
▁लाई	-8.61584
▁पार्टीको	-8.61626
▁!	-8.61635
▁संशोधन	-8.61636
▁प्रेम	-8.61825
▁यातायात	-8.62123
▁ग	-8.62138
▁कारोबार	-8.62229
▁यसका	-8.62254
▁राई	-8.62596
▁दिनमा	-8.62737
ए	-8.62788
▁पहिचान	-8.62957
▁स्पष्ट	-8.63093
▁यसै	-8.63172
▁कसैले	-8.63204
▁रोग	-8.6329
▁टोली	-8.63429
▁वि	-8.63505
▁माथि	-8.6358
▁आफूले	-8.63728
▁सांसद	-8.63888
▁पुग्ने	-8.63971
▁पुगेका	-8.64
▁बैठकले	-8.64142
▁जिल्लाको	-8.64214
▁स्थान	-8.64225
▁बन्ने	-8.64328
▁यात्रा	-8.64483
▁गम्भीर	-8.64512
▁मंगलबार	-8.64629
▁निर्वाचनमा	-8.64639
▁साउन	-8.64659
▁छिन्	-8.64668
▁संयोजक	-8.64803
▁ठूला	-8.64956
▁विस्तार	-8.65489
▁भ्रमण	-8.65496
÷	-8.65531
ित	-8.65679
▁प्रदर्शन	-8.65719
▁केहि	-8.65828
▁२७	-8.66325
▁अमेरिका	-8.66386
▁परिवार	-8.66569
▁बैंकले	-8.6673
▁प्राविधिक	-8.67007
▁वर्षमा	-8.67042
▁मान्छे	-8.67065
ः	-8.67184
▁आन्तरिक	-8.67272
▁क्षमता	-8.67324
▁थापाले	-8.67327
▁विवरण	-8.67333
▁सालमा	-8.67362
▁पाइन्छ	-8.67416
▁स	-8.67598
▁कहिले	-8.67682
▁समितिको	-8.67686
ज	-8.67707
▁शेयर	-8.67908
▁कुल	-8.67979
▁क्षेत्रका	-8.68054
▁भिडियो	-8.68196
▁कुन	-8.68312
ला	-8.68377
▁सिर्जना	-8.68724
▁ए	-8.68729
▁२३	-8.68815
▁बैठकमा	-8.68975
▁मन्त्रालयले	-8.68993
▁आजको	-8.6908
▁नसकेको	-8.69449
▁विचार	-8.6949
▁आयोजित	-8.69491
हरुमा	-8.69644
▁भएन	-8.69808
▁उत्कृष्ट	-8.69874
▁प्रभावित	-8.70357
▁अधिकांश	-8.70518
▁रन	-8.70662
▁पराजित	-8.70722
▁हुनुपर्छ	-8.70887
▁पक्षमा	-8.70901
▁जरुरी	-8.70918
▁अनुभव	-8.70939
▁त्यसमा	-8.7094
▁खबर	-8.71136
य	-8.71139
▁समितिका	-8.71238
▁स्थापित	-8.71355
▁"	-8.71498
▁ऋण	-8.71713
▁थिइन्	-8.71718
ख	-8.71756
▁असर	-8.7183
▁नियन्त्रण	-8.71865
▁प्रभाव	-8.72141
▁तत्काल	-8.72148
▁गाडी	-8.72155
▁आदि	-8.7227
▁कारणले	-8.72278
▁कोही	-8.72286
▁गरेकी	-8.72315
▁कमजोर	-8.72432
▁चरणमा	-8.72491
▁छोरा	-8.72506
३	-8.72581
▁२९	-8.72661
▁गर्दछ	-8.72801
▁२६	-8.72872
▁यदि	-8.72967
▁विरोध	-8.73092
▁धर्म	-8.73175
▁चिनियाँ	-8.73191
▁उम्मेदवार	-8.7328
▁हामीलाई	-8.7333
▁औं	-8.73432
“	-8.73659
ड	-8.73721
▁तहको	-8.74126
▁सानो	-8.74186
▁लागी	-8.74306
▁ल्याउन	-8.74398
▁आम	-8.74444
▁खरिद	-8.74771
▁सुझाव	-8.74838
०	-8.7484
▁एउटै	-8.74922
▁मन्त्रालय	-8.75117
लाइ	-8.75193
▁भनी	-8.75339
▁प	-8.75394
▁राजा	-8.75476
▁निर्वाचित	-8.75645
▁श्रेष्ठले	-8.75674
▁सभापति	-8.75826
▁पुरस्कार	-8.7587
▁लागू	-8.7588
▁राखिएको	-8.7588
▁तहमा	-8.75883
▁सीमा	-8.75914
संग	-8.76035
▁देशका	-8.76035
▁तत्कालीन	-8.76122
▁गुरुङ	-8.76149
▁खेलाडी	-8.76186
▁योगदान	-8.76193
▁फुटबल	-8.7632
▁विवाद	-8.76381
▁सहकारी	-8.76493
▁अन्तर्गत	-8.76524
▁राखेको	-8.76576
▁अस्पतालमा	-8.76635
▁धार्मिक	-8.76816
▁पत्र	-8.76861
▁खान	-8.77123
▁उपाध्यक्ष	-8.77489
▁संकलन	-8.7753
▁स्रोत	-8.77602
▁२०७५	-8.77727
▁समाधान	-8.77759
▁शाखा	-8.78006
स्	-8.78106
▁उसको	-8.78212
▁कार्यकारी	-8.78271
जस्ता	-8.78306
▁क्रिकेट	-8.78329
▁सपना	-8.78761
▁२०७४	-8.78792
▁तह	-8.78844
▁सहभागिता	-8.78949
ब	-8.78985
▁पूजा	-8.79077
▁लगाउने	-8.7909
बाटै	-8.79157
सी	-8.79212
▁समन्वय	-8.79416
▁विवाह	-8.79672
▁सञ्चार	-8.79673
▁बताइएको	-8.79686
▁विदेश	-8.79716
▁वित्तीय	-8.7984
▁पुरा	-8.79907
▁जनताले	-8.80009
▁त्यति	-8.80016
▁प्रशासन	-8.80038
▁जेठ	-8.80071
▁अन्त्य	-8.80085
▁नसक्ने	-8.80171
पनि	-8.80437
▁पार्टीका	-8.80483
▁अनुमान	-8.80499
▁मुलुक	-8.80555
▁६०	-8.80643
▁प्रतिनिधि	-8.80692
▁प्रतियोगिता	-8.80814
▁ठाउँ	-8.80814
▁संस्कृति	-8.80842
▁बिहीबार	-8.80929
▁सभा	-8.80994
▁कथा	-8.81001
▁मार्फत	-8.81205
▁संलग्न	-8.8127
▁बताउँदै	-8.81365
▁दिइएको	-8.81472
▁पूर्वाधार	-8.81951
▁प्रतिवेदन	-8.82139
▁अर्थात्	-8.82153
▁कस्तो	-8.82189
▁तर्फबाट	-8.82207
▁बनेका	-8.82306
▁प्रवक्ता	-8.82373
५	-8.8247
▁शिक्षक	-8.82531
▁जब	-8.82596
▁गर्यो	-8.82617
▁जम्मा	-8.83198
▁व्यवसायी	-8.83259
बहादुर	-8.83447
▁आठ	-8.83528
▁हाम्रा	-8.83659
▁सम्बन्धी	-8.83667
▁सकारात्मक	-8.83682
▁धारणा	-8.83918
▁कार्यक्रमको	-8.83929
▁सम्बन्धमा	-8.83971
▁ल्याएको	-8.8408
४	-8.84302
▁गुनासो	-8.8436
▁दिएर	-8.84623
▁उनीहरु	-8.84655
अनुसार	-8.84696
▁उहाँको	-8.84964
▁प्रभावकारी	-8.84987
▁काममा	-8.85037
▁छोरी	-8.8518
▁मान्यता	-8.85191
▁हेर्न	-8.85355
▁भौतिक	-8.85419
▁पक्ष	-8.85609
प्रसाद	-8.85725
▁छौँ	-8.85835
▁टोलीले	-8.86017
▁निम्ति	-8.86044
▁मानिस	-8.86261
▁माया	-8.86345
▁उनीहरुले	-8.86406
▁सरकारलाई	-8.86513
▁क्षति	-8.86626
▁विद्युत्	-8.86651
हरूमा	-8.86718
छन्	-8.8676
▁उद्घाटन	-8.86873
▁नियमित	-8.87037
िङ	-8.87364
▁आदेश	-8.87441
▁पुनः	-8.87533
▁राति	-8.87535
▁मन्दिर	-8.87618
▁आयोगले	-8.87867
▁गायक	-8.87969
▁ल्याउने	-8.88013
द	-8.88156
लगायतका	-8.88233
▁उहाँ	-8.8837
▁पुल	-8.88485
▁कक्षा	-8.88632
▁व्यवसाय	-8.88642
▁निरन्तर	-8.88712
▁सञ्चालनमा	-8.88759
▁शब्द	-8.88771
▁राजनीति	-8.88788
▁भनिएको	-8.88791
्स	-8.88799
▁स्थित	-8.88831
▁भएपनि	-8.88844
िक	-8.889
▁पुरुष	-8.89121
▁अभाव	-8.89153
▁गलत	-8.89193
▁दिनु	-8.89254
▁हुनुपर्ने	-8.89339
▁प्रकाशित	-8.89411
▁पाएका	-8.89482
▁थिएँ	-8.89554
▁फिर्ता	-8.89678
▁पाउन	-8.89701
▁आयो	-8.89727
▁गएका	-8.89736
▁पौडेल	-8.89798
▁प्रणाली	-8.89807
▁बसेर	-8.90259
मात्र	-8.9039
▁सुरक्षित	-8.90399
▁नियम	-8.90465
▁[]	-8.90481
▁गएर	-8.90545
▁गरिएका	-8.90636
▁न्याय	-8.90894
ना	-8.90915
▁मतदान	-8.91006
▁बढ्दै	-8.91099
▁कम्युनिष्ट	-8.91344
▁थालेका	-8.91403
▁बलियो	-8.91443
▁प्रविधि	-8.91576
▁जाँदा	-8.91606
▁साँझ	-8.91845
▁अधिकारीले	-8.91856
▁बि	-8.9189
▁सेयर	-8.9203
▁फोन	-8.92031
▁प्रतियोगितामा	-8.92071
ट	-8.92322
▁समाजमा	-8.92455
▁स्वागत	-8.92457
जस्तो	-8.92516
▁मध्ये	-8.92547
▁वैदेशिक	-8.9262
(	-8.929
▁कारबाही	-8.92935
▁लागेका	-8.93076
▁सक्रिय	-8.93302
▁दुर्घटना	-8.93375
▁साल	-8.93461
▁संरचना	-8.9362
▁खाने	-8.93879
▁विधेयक	-8.94027
▁बढाउन	-8.94194
▁राम	-8.94239
▁जिल्लाका	-8.94518
▁होस्	-8.94676
▁हेर्दा	-8.94797
▁शैक्षिक	-8.94804
इ	-8.94841
▁पुन	-8.94898
▁अरू	-8.94901
ई	-8.9493
▁माघ	-8.94945
▁हुन्थ्यो	-8.95
▁अनुगमन	-8.95044
▁प्रत्यक्ष	-8.95202
▁वरिष्ठ	-8.95412
▁खाना	-8.95508
▁वर्तमान	-8.95607
▁चर्चित	-8.95671
▁आयात	-8.95674
विरुद्ध	-8.95688
▁मुख्यमन्त्री	-8.95755
ग	-8.95769
िन	-8.95774
▁हुनुहुन्छ	-8.95855
▁लोकतान्त्रिक	-8.95913
▁कृष्ण	-8.95982
▁ज्ञान	-8.95988
▁३१	-8.96001
नै	-8.96035
▁सोच	-8.96367
जी	-8.96441
▁क	-8.96453
ेर	-8.9648
▁साहित्य	-8.9669
▁यौन	-8.96691
▁आम्दानी	-8.96695
▁उनीहरुको	-8.96705
▁कार्यालयले	-8.96873
▁पहल	-8.97068
▁नेतृत्वको	-8.97115
▁संचालन	-8.97329
▁मिति	-8.97475
ङ	-8.97671
▁विकासका	-8.97711
▁पारेको	-8.9778
▁श्री	-8.97781
▁मुलुकको	-8.97809
▁कला	-8.97917
▁अभिनय	-8.97996
▁कलाकार	-8.98214
▁खुला	-8.98363
▁औषधि	-8.98421
▁जित	-8.98734
▁अपराध	-8.98766
▁उनीहरू	-8.98806
▁नेतृत्वमा	-8.98944
▁साना	-8.98948
री	-8.98949
▁गरियो	-8.99096
▁त्यसैगरी	-8.99137
▁साधन	-8.99196
▁पारित	-8.99218
▁उ	-8.99286
▁पुरानो	-8.99321
▁आएर	-8.99543
▁श्रम	-8.9961
वा	-8.99796
▁लाग्यो	-8.99796
▁बल	-8.99986
▁दिँदै	-9.00038
▁दलका	-9.00054
▁अहिलेको	-9.00169
▁सामुदायिक	-9.003
▁कार्यालयमा	-9.00361
▁तामाङ	-9.0055
▁जहाँ	-9.00558
▁जन्म	-9.00609
▁दलित	-9.00629
▁संसदीय	-9.00751
▁वाणिज्य	-9.00827
▁३५	-9.00915
वि	-9.00928
▁आशा	-9.01044
▁कार्यरत	-9.01056
▁हासिल	-9.01131
▁पार्ने	-9.01214
▁मिटर	-9.01239
▁खेती	-9.0143
▁सबैलाई	-9.0152
▁मुलुकमा	-9.01661
▁शासन	-9.01707
▁फाइदा	-9.01754
▁क्लब	-9.01767
▁सम्मेलन	-9.01834
▁लगाउन	-9.0188
▁प्रकाश	-9.0203
▁होटल	-9.02066
▁प्रतिस्पर्धा	-9.02094
▁फागुन	-9.02297
▁बहादुर	-9.02368
▁संगीत	-9.02465
▁तालिम	-9.02557
▁पार्न	-9.02666
▁लिग	-9.02684
▁पौडेलले	-9.02788
▁कम्पनीको	-9.03002
▁बस्न	-9.03034
▁कुरामा	-9.03042
▁नभई	-9.03147
▁यता	-9.03163
▁अघिल्लो	-9.03227
कुमार	-9.03252
▁तय	-9.03282
▁सामग्री	-9.03417
रा	-9.03495
’,	-9.0352
▁प्रथम	-9.03606
▁दाहाल	-9.03627
▁हेर्ने	-9.03631
▁चितवन	-9.03769
▁लिएका	-9.03803
▁मंसिर	-9.04058
▁वैशाख	-9.04086
▁भारतले	-9.04093
ीय	-9.04192
▁सर्वोच्च	-9.0422
च	-9.04253
▁स्थिति	-9.04269
▁बढ्ने	-9.04606
▁दशमलव	-9.04614
▁लगाएर	-9.04659
▁लगाएको	-9.04896
▁कविता	-9.04904
▁सामान	-9.05099
▁बाल	-9.05194
६	-9.05249
▁चुनौती	-9.05421
▁वार्षिक	-9.05441
▁बाध्य	-9.05982
▁बिरामी	-9.06055
▁भनाई	-9.06138
▁निश्चित	-9.06146
▁मूल	-9.06169
▁त्यसले	-9.0631
▁तपाईं	-9.06342
▁सम्भव	-9.06398
▁बढाउने	-9.06537
▁किलोमिटर	-9.06614
▁आँखा	-9.0672
▁उपयुक्त	-9.0689
▁भर्ना	-9.06953
▁सक्छन्	-9.07075
▁बढ्न	-9.07082
▁त्यसका	-9.07187
▁शुल्क	-9.07245
▁जापान	-9.07304
▁कहिल्यै	-9.07309
▁परीक्षण	-9.07329
▁पुग्न	-9.07347
▁सक्दैन	-9.07433
▁केन्द्रित	-9.07545
▁डलर	-9.07576
▁पर्दछ	-9.07576
▁सांस्कृतिक	-9.07671
▁सन्दर्भमा	-9.07821
दा	-9.08191
▁—	-9.08353
ह	-9.08472
▁प्राकृतिक	-9.08531
▁जवाफ	-9.08561
▁चासो	-9.08601
▁ऐतिहासिक	-9.08611
▁सदरमुकाम	-9.08629
▁हालसम्म	-9.08715
▁भूकम्प	-9.08736
▁थुप्रै	-9.08786
▁एकै	-9.08794
▁स्वतन्त्र	-9.0885
▁मेडिकल	-9.08861
▁वर्षदेखि	-9.09009
▁आवाज	-9.09212
▁पो	-9.09326
▁निर्माणको	-9.09339
▁निर्धारण	-9.09567
▁कहाँ	-9.09643
▁अपेक्षा	-9.09663
▁उपाधि	-9.09665
▁साझा	-9.09688
▁उनीहरूले	-9.09737
▁सबैको	-9.0981
▁७०	-9.10186
▁तरकारी	-9.10197
▁द	-9.10208
▁नौ	-9.10214
ौ	-9.10215
अ	-9.103
▁सबैले	-9.10494
▁नगर्ने	-9.10763
▁सम्पत्ति	-9.10866
▁कतै	-9.10886
▁नगद	-9.10956
▁सही	-9.11233
▁कुमार	-9.113
▁स्थायी	-9.11349
ली	-9.11395
श	-9.11401
▁गोली	-9.11462
▁पर्व	-9.11485
▁प्रतिबद्धता	-9.11582
्ने	-9.11741
▁पीडित	-9.11811
▁सिंह	-9.11854
▁परिणाम	-9.11888
▁संगठन	-9.11896
▁सुन्दर	-9.11933
▁गाउँमा	-9.12102
▁सन्देश	-9.12205
▁विजयी	-9.12243
▁गराएको	-9.12268
अन्तर्गत	-9.12422
▁अभ्यास	-9.126
▁सत्ता	-9.12848
▁८०	-9.12862
▁त्यस्ता	-9.12867
▁इतिहास	-9.12945
▁कम्युनिस्ट	-9.12994
▁आए	-9.13101
ौं	-9.13124
के	-9.13142
▁ऊ	-9.13183
▁अनुमति	-9.1325
▁विश्वकप	-9.13375
▁भनिन्छ	-9.13573
या	-9.13612
▁उचित	-9.1369
▁घण्टा	-9.13702
▁हैन	-9.13771
▁पद	-9.13825
▁अनुरोध	-9.14149
▁बा	-9.14259
▁बैंकको	-9.14326
▁सिफारिस	-9.14523
▁उनीहरूको	-9.14541
▁जनतालाई	-9.14547
▁निकाय	-9.14684
▁मोबाइल	-9.14893
▁राज्यको	-9.1491
▁उमेर	-9.15186
▁जन	-9.15333
▁नगरी	-9.15356
▁एवम्	-9.15428
▁पुस्तक	-9.1546
▁अवधिमा	-9.15646
▁निर्माणका	-9.15738
▁गृह	-9.15844
▁राहत	-9.15909
▁प्रहरीको	-9.16142
▁वर्षीया	-9.16154
▁पश्चिम	-9.16492
▁फेला	-9.16582
▁पर्यटक	-9.16694
▁विरुद्ध	-9.1672
▁आउँछ	-9.16777
▁सि	-9.16872
्दै	-9.16909
▁लामा	-9.1698
▁नहुँदा	-9.17071
▁क्रम	-9.17084
▁विगत	-9.17091
▁छनोट	-9.17092
▁बन्दै	-9.17238
▁आयोजक	-9.17368
▁परीक्षा	-9.17529
▁भनिन्	-9.17599
▁झण्डै	-9.1791
▁सम्पर्क	-9.17987
▁महत्व	-9.18027
▁बाहेक	-9.18066
▁ल	-9.18143
▁चुनावी	-9.18152
▁खुसी	-9.18169
▁कमी	-9.1825
▁कर्णाली	-9.18313
▁साता	-9.18362
▁विकल्प	-9.18459
▁प्रेस	-9.18472
▁विज्ञान	-9.18616
▁त्यसो	-9.18722
▁प्रहार	-9.18727
▁विकेट	-9.1886
▁सशस्त्र	-9.19001
भ	-9.1906
▁थाले	-9.19202
▁नियन्त्रणमा	-9.19246
▁फोरम	-9.19252
▁पाए	-9.19305
▁सञ्चालक	-9.19348
▁आयोजनामा	-9.19466
िएको	-9.1955
▁त्यसै	-9.19687
▁बनाएका	-9.19834
▁प्रचार	-9.19875
▁आधारित	-9.19889
▁मिलेर	-9.19909
▁व्यक्तिगत	-9.19909
▁सफलता	-9.20002
▁प्रतिनिधिसभा	-9.20062
▁क्षेत्रीय	-9.20102
▁विमानस्थल	-9.20183
▁अदालतले	-9.20325
▁ऊर्जा	-9.20412
▁विद्यालयमा	-9.20437
▁उद्देश्य	-9.20455
▁सकेन	-9.20489
▁हुँ	-9.20504
▁छिमेकी	-9.20515
▁चलन	-9.20565
▁कर्जा	-9.20585
▁प्रा	-9.20607
▁दुःख	-9.20749
▁सडकमा	-9.20797
▁नदी	-9.20827
▁विकासको	-9.20961
▁शुभकामना	-9.21105
▁कानून	-9.21227
▁बीच	-9.21271
▁महिनामा	-9.21311
▁प्रदेशको	-9.21385
▁भनेका	-9.2141
▁सरकारका	-9.21483
▁तुलनामा	-9.21491
▁गए	-9.21505
▁यसैगरी	-9.21512
▁धान	-9.21587
▁समान	-9.21592
रुपमा	-9.21674
▁भण्डारी	-9.21682
▁कडा	-9.21692
▁चिन्ता	-9.21714
▁अर्थात	-9.21835
▁हस्तान्तरण	-9.2198
नी	-9.22065
▁भेट	-9.22086
▁पार्टीले	-9.22228
▁व्यवहार	-9.22267
▁जिम्मा	-9.22296
▁सु	-9.22323
७	-9.22401
▁भ्रष्टाचार	-9.22466
▁दिवस	-9.2248
टी	-9.22544
▁चैत	-9.22577
▁सम्मेलनमा	-9.22616
▁प्रधान	-9.22684
▁चरणको	-9.22764
▁भारतमा	-9.22854
▁बसेका	-9.22997
▁संग	-9.23086
▁केसी	-9.23167
▁आधुनिक	-9.23366
▁महिलाको	-9.23372
▁समर्थन	-9.23385
▁जोखिम	-9.23416
▁रेडियो	-9.23483
▁औपचारिक	-9.23496
▁जसमा	-9.23534
▁रासस	-9.23543
▁शव	-9.23544
▁पेश	-9.23561
▁आधा	-9.23583
▁कानुनी	-9.23641
▁सजिलो	-9.2365
▁ख	-9.23655
▁विजय	-9.23673
▁व्यक्तिको	-9.2382
▁गरिसकेको	-9.23917
▁आयोग	-9.23942
▁दर	-9.23959
▁टिम	-9.24247
▁४५	-9.24399
▁पर्यटकीय	-9.24527
▁हिजो	-9.24755
▁कार्तिक	-9.24767
▁प्राथमिकता	-9.24845
▁सेना	-9.24864
▁व्यावसायिक	-9.25016
▁तर्क	-9.25039
▁अनुदान	-9.25209
▁राखेका	-9.25374
▁हस्ताक्षर	-9.25403
▁इ	-9.2541
पूर्ण	-9.25424
▁किनभने	-9.25459
▁बालबालिका	-9.25533
्न	-9.25604
▁चयन	-9.25797
▁दलको	-9.25844
▁अति	-9.26069
▁३२	-9.26486
बि	-9.26614
▁बम	-9.2668
▁बलात्कार	-9.26751
▁दबाब	-9.26845
▁सत्य	-9.2686
▁लोक	-9.26863
िने	-9.26912
▁उपस्थित	-9.26949
ेको	-9.26989
▁पुस	-9.27018
▁मिनेटमा	-9.27145
▁फोटो	-9.27154
▁महासचिव	-9.27194
▁हिंसा	-9.27234
▁कार्की	-9.27373
▁जसरी	-9.27537
▁काठमाडौंमा	-9.27632
▁विभागले	-9.27666
▁उपयोग	-9.2773
▁हिसाबले	-9.27909
▁नागरिकता	-9.2801
▁प्र	-9.28048
▁जनाएका	-9.2806
▁अगाडी	-9.28061
▁परिचालन	-9.2818
▁सहकार्य	-9.28181
▁पुगेर	-9.28229
सित	-9.28231
▁सैनिक	-9.28409
▁मानिन्छ	-9.28486
▁अलि	-9.28529
▁अर्का	-9.28603
▁विमान	-9.28677
▁केन्द्रका	-9.28698
▁साधारण	-9.28835
▁वार्ता	-9.28946
▁नजिक	-9.29033
▁बराबरको	-9.29034
▁विभाग	-9.29287
▁मन्त्रालयका	-9.29301
▁तर्फ	-9.29498
▁संघका	-9.2956
▁नभए	-9.29608
▁पत्ता	-9.29609
▁काँग्रेस	-9.29643
बी	-9.29662
▁नेपाललाई	-9.29671
▁खोजी	-9.29677
▁पर	-9.29707
▁यादव	-9.2988
▁लाग्न	-9.30001
▁कार्यालयका	-9.30057
▁प्रतिक्रिया	-9.30077
वाट	-9.30116
पा	-9.30131
▁रोजगारी	-9.30158
▁पर्याप्त	-9.30217
बाहेक	-9.30238
ियो	-9.30272
▁आएपछि	-9.30277
▁बुझ्न	-9.30308
▁जनालाई	-9.30399
▁रेल	-9.30433
▁२०७३	-9.30439
▁हक	-9.30572
▁पर्न	-9.30612
▁चीनको	-9.30692
▁नियुक्त	-9.30703
▁मह	-9.30726
▁सजाय	-9.30738
▁थोरै	-9.30863
▁दुर्घटनामा	-9.30904
▁पदार्थ	-9.30925
▁देख्न	-9.30956
▁बस्ती	-9.31025
▁बिभिन्न	-9.31107
▁खुशी	-9.31187
▁उडान	-9.31189
▁खेलकुद	-9.3126
▁बीचमा	-9.31345
▁चौथो	-9.31376
▁उजुरी	-9.3138
▁अदालत	-9.31461
▁उपभोक्ता	-9.31515
८	-9.31613
▁शर्माले	-9.31661
▁समृद्धि	-9.31719
▁संस्थाले	-9.31721
▁गर्नका	-9.31809
▁उपस्थिति	-9.3193
▁विदेशमा	-9.31938
▁पुष्पकमल	-9.31977
▁पहिला	-9.32015
▁कलेज	-9.32063
▁निरन्तरता	-9.32071
▁हालै	-9.32097
▁अनिवार्य	-9.32141
▁नभएर	-9.32179
▁पहुँच	-9.32184
▁दिउँसो	-9.32196
▁प्रकाशन	-9.32218
▁केन्द्रमा	-9.32281
▁२०७२	-9.32309
▁नतिजा	-9.32338
मान	-9.32489
▁छुट	-9.32499
▁जसको	-9.32631
▁डाक्टर	-9.32637
▁गाविस	-9.32845
▁स्थानिय	-9.32889
▁कोइराला	-9.32914
▁नगरपालिकाको	-9.32934
▁राजनीतिमा	-9.33019
▁पाइएको	-9.33184
▁मगर	-9.33199
▁तराई	-9.33212
▁किसान	-9.3343
▁बीमा	-9.33492
जस्तै	-9.33508
▁प्रावधान	-9.33526
▁हुनाले	-9.33539
▁पढ्न	-9.33565
सं	-9.33596
▁ट्राफिक	-9.33614
▁आलोचना	-9.33653
▁केसीले	-9.33757
▁बहस	-9.33807
▁चुनावमा	-9.33848
▁अथवा	-9.33868
▁साढे	-9.33882
▁वर्षअघि	-9.33903
▁शेरबहादुर	-9.33941
▁मापदण्ड	-9.34049
▁मानसिक	-9.34079
▁अंक	-9.34234
▁सँगै	-9.34247
▁अमेरिकाको	-9.3427
▁श्रीमती	-9.34311
▁पाइने	-9.34326
▁स्वीकार	-9.34334
उ	-9.34339
▁मेरा	-9.34438
▁वाम	-9.34657
▁भन्सार	-9.34774
▁घरेलु	-9.34819
▁गर्नेछ	-9.34822
▁कार्यकर्ता	-9.34877
▁३३	-9.34908
▁ठुलो	-9.34934
▁प्रदेशमा	-9.34969
▁करीब	-9.34977
▁बताउनु	-9.35226
▁परियोजना	-9.3527
▁कम्तीमा	-9.35277
डी	-9.35307
▁रोक्न	-9.35379
ति	-9.35572
▁व्यवस्थित	-9.35696
▁सहयोगमा	-9.35715
ू	-9.35721
▁खानेपानी	-9.35767
▁चाहिँ	-9.3579
▁देखिने	-9.36046
▁संविधानको	-9.36082
डा	-9.3609
▁देखाएको	-9.36144
▁बाढी	-9.36237
▁यादवले	-9.36302
▁तोकिएको	-9.36354
▁आक्रमण	-9.36439
िय	-9.36451
▁लाभ	-9.36458
▁तलब	-9.36495
९	-9.36532
▁भण्डारीले	-9.36598
▁९०	-9.36693
▁फूल	-9.36701
▁राजदूत	-9.36721
▁राज	-9.36824
▁संस्थाको	-9.37025
▁समुदाय	-9.37119
▁जान्छ	-9.37217
▁निर्माणमा	-9.37217
▁विकासमा	-9.37225
▁उनीहरुलाई	-9.37234
▁भट्टराई	-9.37252
्दा	-9.37257
▁प्रतियोगिताको	-9.37297
▁/	-9.37333
▁समग्र	-9.37334
▁पदमा	-9.3743
▁समावेश	-9.37459
▁उत्पन्न	-9.37568
▁महसुस	-9.37656
▁फैसला	-9.37772
▁सीमित	-9.37834
▁यसो	-9.3784
▁गुरुङले	-9.37877
ओ	-9.38125
▁कांग्रेसका	-9.38133
▁वस्तु	-9.38241
▁भएकी	-9.38259
▁थालेपछि	-9.38318
▁त्रिभुवन	-9.38363
▁सं	-9.38407
▁सी	-9.38444
▁प्रकारको	-9.38541
▁बच्चा	-9.38624
सँगको	-9.38647
▁दु	-9.3875
्यो	-9.38818
▁पार	-9.38888
▁गरिनेछ	-9.38894
▁तथ्य	-9.39052
▁बताएको	-9.39064
▁राज्यले	-9.39068
▁डि	-9.39109
▁दुबै	-9.39118
सहितको	-9.39158
▁चाहना	-9.39189
▁लगातार	-9.39269
▁टिकट	-9.39364
▁प्रचण्ड	-9.39419
▁मध्य	-9.39434
▁मधेशी	-9.39465
▁माध्यमबाट	-9.39511
▁कुराकानी	-9.39539
▁मधेसी	-9.39549
▁प्रदेशसभा	-9.39644
▁परम्परा	-9.39651
▁बनाइएको	-9.39726
▁पास	-9.3973
▁क्यान्सर	-9.39823
▁बोकेर	-9.39875
▁विराटनगर	-9.40017
▁धन	-9.40126
पुर	-9.40227
▁यसबाट	-9.40321
▁उपचारका	-9.40337
▁रे	-9.40362
▁देखिएका	-9.40543
▁संघर्ष	-9.40606
▁उद्देश्यले	-9.40657
▁बोल्दै	-9.40763
▁७५	-9.40794
▁दिनको	-9.40794
▁हुनसक्छ	-9.40836
▁सकिएको	-9.40925
▁मौका	-9.40986
▁जीवनमा	-9.41063
्य	-9.41102
▁गाह्रो	-9.41136
▁मेयर	-9.41262
▁रोजगार	-9.41281
▁गति	-9.41282
▁भावना	-9.41486
▁समयदेखि	-9.41596
▁खतरा	-9.41697
▁सकेका	-9.41719
▁गोविन्द	-9.41748
▁एकजना	-9.41755
▁स्कुल	-9.41817
▁प्रमाण	-9.41926
▁उद्धार	-9.41969
▁प्रसाद	-9.42092
▁पछाडि	-9.42211
▁उसलाई	-9.42211
▁दाहालले	-9.42223
▁एकीकृत	-9.42231
▁बताउनुभएको	-9.42516
▁टीका	-9.42607
▁अनलाइन	-9.42631
▁खेल्ने	-9.42685
▁यहाँका	-9.42788
▁सचेत	-9.42847
▁ढंगले	-9.42903
▁गीतमा	-9.42989
▁गयो	-9.43099
▁जेल	-9.43134
▁रहेर	-9.43174
▁व्यक्तिले	-9.43177
▁मानिसको	-9.43187
▁छिटो	-9.43225
लि	-9.43317
▁उदाहरण	-9.43328
▁लक्षित	-9.43355
लो	-9.43362
▁जानु	-9.43392
राम	-9.43417
▁सहायक	-9.43588
▁भन्नु	-9.43623
सा	-9.43664
▁छानबिन	-9.43694
▁मौलिक	-9.43838
▁लक्ष्मी	-9.43885
▁संवैधानिक	-9.44068
ाई	-9.44106
२०	-9.44115
▁नाफा	-9.4413
▁पहिरो	-9.44135
▁प्रगति	-9.44145
▁विद्युत	-9.44181
▁पुराना	-9.44379
▁चिया	-9.4445
▁पारेर	-9.44478
▁कालो	-9.44662
▁निधन	-9.44748
—	-9.44802
ण	-9.44918
▁प्रमाणपत्र	-9.4494
▁तिर	-9.45036
▁कांग्रेसले	-9.45048
▁बेलामा	-9.45094
▁प्रतिनिधित्व	-9.45116
सम्मको	-9.45244
▁खड्का	-9.45288
▁बताइन्	-9.45311
▁प्रशिक्षक	-9.45409
▁प्रवाह	-9.45462
▁मात्रामा	-9.45569
▁बुटवल	-9.45614
▁तल	-9.45782
▁विधि	-9.45825
▁कमल	-9.45836
▁भुक्तानी	-9.45852
ाउने	-9.4587
▁जल	-9.45888
लाल	-9.45945
▁बढि	-9.45995
▁कवि	-9.46028
▁आफै	-9.46149
▁हिमाल	-9.46151
▁तिहार	-9.46163
▁बारे	-9.46167
▁वर्ग	-9.46216
▁खासै	-9.46231
▁लागिएको	-9.46313
▁भएमा	-9.46393
▁यद्यपि	-9.46411
▁समाजको	-9.46445
▁अमेरिकामा	-9.4653
▁साथी	-9.46531
फ	-9.46575
▁नारा	-9.46694
"	-9.46696
▁प्रसारण	-9.46863
▁गर्छु	-9.46882
रो	-9.46908
▁रहे	-9.46926
▁नामक	-9.46997
▁पहाडी	-9.47012
▁शाह	-9.47049
▁ब	-9.47071
▁सञ्जाल	-9.4712
▁नगरपालिकाले	-9.47201
लार्इ	-9.47329
▁महिनाको	-9.47385
▁कसैलाई	-9.4742
▁निर्वाह	-9.47506
▁बुद्ध	-9.47733
▁देउवाले	-9.47789
▁भ्रमणमा	-9.47792
▁गैर	-9.47822
▁लाइन	-9.48053
▁राईले	-9.48068
▁समाजवादी	-9.48083
▁विस्तृत	-9.48164
▁गराएका	-9.48185
▁तहका	-9.48314
▁बरु	-9.48374
▁संकेत	-9.48385
▁वर्षा	-9.4848
▁विश्वविद्यालय	-9.48491
▁हल	-9.48503
▁दर्शन	-9.48539
▁देउवा	-9.48548
▁गतिविधि	-9.48597
▁भक्तपुर	-9.48636
▁बिना	-9.4869
▁मुक्त	-9.48701
▁पीडा	-9.4872
▁गतेदेखि	-9.48775
▁अध्यक्षतामा	-9.48832
▁धारा	-9.48964
▁सरकारमा	-9.48998
▁गर	-9.48999
▁समयमै	-9.4901
▁बढ्दो	-9.49026
▁खोजेको	-9.49045
▁निर्वाचनको	-9.49081
▁गृहमन्त्री	-9.49091
▁रहन	-9.49256
▁आफु	-9.49294
▁विगतमा	-9.49307
▁आई	-9.49316
▁जलविद्युत्	-9.49421
▁साउदी	-9.49422
▁२०१८	-9.49508
▁आयोजनाको	-9.49553
▁म्युजिक	-9.49587
▁निर्मला	-9.4961
▁भोट	-9.49681
मी	-9.49718
▁एजेन्सी	-9.49858
▁गणतन्त्र	-9.49895
▁परे	-9.49921
्र	-9.49935
▁सह	-9.49998
▁वर्षसम्म	-9.50019
▁भट्टराईले	-9.50027
सि	-9.50169
▁मे	-9.50296
▁महिलाले	-9.50415
▁ला	-9.50432
▁अदालतमा	-9.50485
▁व्यक्तिलाई	-9.50743
नि	-9.50768
▁डेढ	-9.50855
▁सालको	-9.50862
▁निर्यात	-9.50864
▁व्यापक	-9.50929
▁परी	-9.50999
▁गर्दछन्	-9.51023
ौँ	-9.51044
▁चलाउन	-9.51056
▁मेला	-9.51069
▁भएकोले	-9.51069
▁उप	-9.51143
▁चालक	-9.51167
▁राजस्व	-9.51188
▁अत्यन्त	-9.51212
▁कसैको	-9.51262
▁समुदायको	-9.51314
▁दायित्व	-9.51319
▁कदम	-9.51374
▁बालिका	-9.51573
▁संस्थागत	-9.51577
▁हातमा	-9.51732
▁इच्छा	-9.51734
▁पुष्टि	-9.51854
▁नसक्दा	-9.51865
▁नगरपालिकाका	-9.51866
▁सेवन	-9.51911
▁बैङ्क	-9.51912
▁नगरेको	-9.51943
▁खेलको	-9.5201
▁कप	-9.52015
▁की	-9.52095
▁महासंघ	-9.52195
▁गौतम	-9.52251
▁विनियोजन	-9.52285
▁बमोजिम	-9.5231
▁पर्दैन	-9.52415
▁अवार्ड	-9.52451
▁पानीको	-9.52536
▁बनाए	-9.52538
▁पर्यो	-9.52698
▁टाढा	-9.52703
▁झन्	-9.52791
▁एमालेका	-9.52792
▁दश	-9.52977
▁मैदानमा	-9.53115
▁ई	-9.53121
▁प्रशिक्षण	-9.53122
▁नारायण	-9.53225
▁खेल्न	-9.53389
▁मतदाता	-9.53397
▁विभागका	-9.5343
▁जनशक्ति	-9.53443
▁प्रचण्डले	-9.53454
▁प्रकारका	-9.53531
▁आवेदन	-9.53535
▁सल्लाह	-9.5361
▁कार्यमा	-9.53686
▁सहयोगी	-9.53703
▁छुट्टै	-9.53746
▁बाध्यता	-9.53774
▁केवल	-9.53801
▁अनेक	-9.53802
▁शिव	-9.5385
▁तेल	-9.53941
▁सके	-9.54054
▁तपाईंको	-9.54262
पी	-9.54278
▁सिद्धान्त	-9.54297
▁५५	-9.54327
▁भारतका	-9.54369
▁राजीनामा	-9.5438
▁उपमहानगरपालिका	-9.54467
▁विजेता	-9.54539
▁किसिमको	-9.54562
▁मासु	-9.54588
▁जनाले	-9.54656
▁संस्कार	-9.54672
ाले	-9.54724
▁नाटक	-9.54743
▁पसल	-9.54832
▁ओ	-9.54837
▁मिनेट	-9.54912
एक	-9.54919
▁पत्रकारिता	-9.5497
▁लगाएका	-9.54988
▁आउनु	-9.55197
▁बसोबास	-9.55216
▁निःशुल्क	-9.55427
▁जोडिएको	-9.55433
▁एण्ड	-9.55447
▁बाबुराम	-9.55485
बीचको	-9.55611
▁गतेसम्म	-9.55621
▁खालको	-9.55637
▁नदिने	-9.55748
▁कोष	-9.55791
नन्	-9.55796
,”	-9.55832
▁पठाउने	-9.55844
▁निवेदन	-9.55992
▁आचार्य	-9.56037
▁नरहेको	-9.56137
▁आदिवासी	-9.56165
▁टिप्पणी	-9.56192
▁लागेर	-9.56209
▁उम्मेदवारी	-9.56223
”,	-9.56375
▁जोड्ने	-9.56583
▁डर	-9.56603
नु	-9.56604
▁लेख	-9.56624
▁चौधरी	-9.56678
▁पुगे	-9.56764
▁कार्यक्रमका	-9.56818
▁ओलीको	-9.56874
▁युद्ध	-9.56947
▁दुरुपयोग	-9.56964
▁व्यस्त	-9.56982
▁अभिव्यक्ति	-9.57092
▁मामिला	-9.57097
▁चेतावनी	-9.57106
▁विश्लेषण	-9.57281
पटक	-9.57297
▁घरको	-9.5751
बा	-9.57709
▁भाषामा	-9.57752
ती	-9.57995
▁ठीक	-9.58018
▁दावी	-9.58039
▁बढाएको	-9.58073
▁लेखक	-9.58098
नाथ	-9.58119
▁घटनाको	-9.58162
▁भागमा	-9.5817
▁आउँदा	-9.58275
▁छोटो	-9.58293
▁चिकित्सक	-9.58401
▁प्रतिशतले	-9.58598
▁भत्ता	-9.58692
▁लि	-9.59054
▁स्वर	-9.59073
▁आधारभूत	-9.59126
▁शहर	-9.59214
▁कार्यान्वयनमा	-9.59249
▁त्यतिबेला	-9.59287
▁प्रदेशका	-9.59329
▁भर	-9.59457
▁घटनामा	-9.59514
▁मनाउने	-9.59616
कि	-9.59625
▁मेगावाट	-9.59628
▁नभएका	-9.59724
▁समृद्धिको	-9.59735
▁आनन्द	-9.5989
▁गायिका	-9.59895
से	-9.59896
▁क्षेत्रलाई	-9.59924
▁रातो	-9.59941
▁वर्षपछि	-9.6009
▁नियुक्ति	-9.60092
▁आयोगको	-9.60112
▁महिलालाई	-9.60143
▁धनी	-9.60164
▁तरिकाले	-9.60177
),	-9.60193
▁रमाइलो	-9.60204
▁मार्ग	-9.60231
▁समृद्ध	-9.60268
▁कपडा	-9.60308
▁पोखरेलले	-9.60315
▁जातीय	-9.60339
▁चलेको	-9.60407
▁असफल	-9.60446
▁ज	-9.60455
▁कठिन	-9.60459
▁मै	-9.60533
▁आन्दोलनमा	-9.60572
▁उपाय	-9.6058
▁नाका	-9.60582
▁रगत	-9.60587
▁शुभ	-9.60588
▁कामदार	-9.60647
▁लोकतन्त्र	-9.60668
▁डिभिजन	-9.60671
▁जनाइएको	-9.60711
▁ग्रामीण	-9.6072
▁संघको	-9.60834
आ	-9.60858
▁थाल्यो	-9.60869
▁देखेर	-9.60967
▁शीर्ष	-9.61036
▁गरिन्	-9.61043
▁रह्यो	-9.61059
▁राजमार्ग	-9.61161
▁मिस	-9.61188
दै	-9.61201
▁चिकित्सा	-9.6122
▁न्यायाधीश	-9.61228
▁आपूर्ति	-9.61245
▁रहन्छ	-9.61588
▁भइरहेका	-9.61736
▁कार	-9.61743
▁संस्थाका	-9.61801
▁मिडिया	-9.619
▁बाटोमा	-9.61928
▁भ	-9.61956
▁सम्पादन	-9.61978
▁छौ	-9.61994
▁लगभग	-9.62136
▁माथिल्लो	-9.62175
▁समितिमा	-9.62189
वादी	-9.62274
▁हुँदैछ	-9.62313
▁भोलि	-9.62463
▁परराष्ट्र	-9.62471
▁हुनेछन्	-9.62475
▁नेताहरु	-9.62478
▁साथमा	-9.62531
▁ग्रहण	-9.62552
▁थालिएको	-9.62612
▁आह्वान	-9.6268
▁गाउँपालिकाको	-9.62781
▁परम्परागत	-9.62783
▁उपरीक्षक	-9.62793
▁दिनुपर्ने	-9.62796
▁झापा	-9.62816
▁बनाउनु	-9.62828
▁नरेन्द्र	-9.62836
▁प्रष्ट	-9.6287
▁वैज्ञानिक	-9.62917
▁गणेश	-9.62963
▁मन्त्रालयको	-9.62981
▁खाद्य	-9.63024
▁पुग्यो	-9.6306
▁विषयलाई	-9.63093
▁सवै	-9.63201
▁रू	-9.63228
▁एन	-9.6331
िया	-9.63362
▁मुख	-9.6337
▁पठाएको	-9.63437
▁खोला	-9.63528
▁यहाँको	-9.63579
▁चलाउने	-9.63582
▁सुरुवात	-9.63709
▁दिनसम्म	-9.63753
▁३६	-9.63835
▁सफा	-9.63843
गत	-9.63929
▁आफैं	-9.6393
▁पदाधिकारी	-9.63943
▁शरीर	-9.63979
िरहेको	-9.64017
▁जाँच	-9.64023
▁जसलाई	-9.64036
▁पुर्याउने	-9.64042
▁खारेज	-9.64059
▁सधैं	-9.64107
▁जनसंख्या	-9.64229
▁रमेश	-9.64248
▁खुल्ला	-9.64321
▁शक्तिशाली	-9.64394
▁विश्वका	-9.64415
एको	-9.64421
सिंह	-9.64429
▁अव	-9.64443
▁कमजोरी	-9.64485
▁मोटरसाइकल	-9.64496
नेपाल	-9.64502
▁गीतको	-9.64555
▁नजिकै	-9.64581
▁एमालेले	-9.64615
▁आरोपमा	-9.64643
▁एकल	-9.64757
▁सदस्यीय	-9.64767
▁हार	-9.64775
▁जमिन	-9.64787
▁प्रारम्भिक	-9.64807
▁६५	-9.6483
▁पूर्वी	-9.64899
▁औद्योगिक	-9.64956
िन्छ	-9.6496
▁अख्तियार	-9.6497
▁लोकप्रिय	-9.64974
▁नायिका	-9.6499
▁सभामुख	-9.6499
▁यात्रु	-9.65101
▁स्व	-9.65122
▁गा	-9.65154
▁मधेश	-9.65172
▁निर्माता	-9.65188
▁भेला	-9.65201
▁सिट	-9.65203
▁चीनले	-9.65243
▁सञ्चालित	-9.65337
▁जहाज	-9.65488
▁प्रक्रियामा	-9.65514
▁पत्रिका	-9.6553
▁विकसित	-9.65632
▁प्रजातन्त्र	-9.65651
जन	-9.65668
▁प्रवृत्ति	-9.65783
▁अतिथि	-9.65817
▁परिवारका	-9.65846
▁कित्ता	-9.65951
▁मर्मत	-9.65957
▁दोश्रो	-9.65958
▁सङ्ख्या	-9.6597
▁जनजाति	-9.65971
▁शुरू	-9.66027
▁वर्षका	-9.6608
▁संघीयता	-9.66092
▁दूध	-9.66156
▁समूहले	-9.66184
▁गरिब	-9.66247
▁परिवारको	-9.6625
▁लिए	-9.66315
▁नागरिकको	-9.66493
▁अन्तर	-9.66494
▁देखियो	-9.66553
▁जिम्मेवार	-9.66595
▁कार्कीले	-9.66617
▁तथ्यांक	-9.6667
▁हेरेर	-9.66675
▁योग	-9.66759
▁कार्ड	-9.66779
▁यहि	-9.66789
▁सँग	-9.66835
▁ति	-9.6685
▁मासिक	-9.66852
▁यतिबेला	-9.66864
▁तपाई	-9.66876
▁केन्द्रले	-9.66885
▁गरिसकेका	-9.66898
▁दर्जन	-9.66981
▁हित	-9.67002
▁सुख	-9.67052
▁फिल्ममा	-9.67073
▁वास्तविक	-9.67098
▁गठबन्धन	-9.671
▁तयारीमा	-9.67146
▁महाधिवेशन	-9.6718
▁च	-9.67185
▁जितेको	-9.67194
हा	-9.67223
▁चालु	-9.67243
तर	-9.67313
▁मिल्ने	-9.67377
▁झन्डै	-9.67451
▁विष्णु	-9.67511
▁गल्ती	-9.6755
▁शेर्पा	-9.67566
▁अभिनेत्री	-9.67629
▁समाजका	-9.67649
▁मनमा	-9.67688
ाएर	-9.67729
▁हप्ता	-9.67758
▁जनकपुर	-9.6779
▁यु	-9.67853
▁अतिरिक्त	-9.67866
▁शारीरिक	-9.67866
▁रिलिज	-9.67945
▁आइ	-9.67962
▁नृत्य	-9.68039
▁अभियानमा	-9.68055
▁फोहोर	-9.68113
▁महानगरपालिका	-9.68118
▁प्रकट	-9.68165
▁प्राधिकरणले	-9.68179
▁चलचित्रमा	-9.68262
▁खाली	-9.6866
▁अलग	-9.68668
▁कारवाही	-9.68676
▁आकर्षक	-9.68725
▁भूमि	-9.68802
▁संसद्	-9.68824
▁संघले	-9.68825
▁राजेन्द्र	-9.68832
▁रुप	-9.68843
▁गुणस्तर	-9.68851
ङ्ग	-9.69056
▁चोरी	-9.69173
▁इन्टरनेट	-9.69394
▁राप्रपा	-9.69457
▁धन्यवाद	-9.69491
▁सामना	-9.69491
▁ल्याएर	-9.69493
▁बन	-9.6951
▁बिजुली	-9.69523
▁फेरी	-9.69557
▁सायद	-9.69595
▁घटेको	-9.69652
▁तीव्र	-9.69726
▁फेसबुक	-9.69744
▁पर्वत	-9.69768
▁बचत	-9.69852
▁जडान	-9.69892
िएका	-9.69917
▁उनीहरूलाई	-9.69966
▁सेनाको	-9.70006
▁दिल्ली	-9.70055
▁ठहर	-9.701
▁परिस्थिति	-9.70151
▁खर्ब	-9.70399
▁तिमी	-9.70405
▁मद्दत	-9.70546
▁चल्ने	-9.70572
▁आकर्षण	-9.70776
▁संख्यामा	-9.7078
▁रुपियाँ	-9.70866
▁उत्तिकै	-9.70874
▁भरतपुर	-9.709
रु	-9.70997
▁अवरोध	-9.71018
▁हवाई	-9.71052
▁कञ्चनपुर	-9.71061
▁कर्मचारीको	-9.7109
▁देखी	-9.71111
▁संसदमा	-9.71128
▁उता	-9.7116
िन्	-9.7127
▁कल्पना	-9.71282
▁पोखरामा	-9.71295
▁भेटघाट	-9.71312
▁रक्षा	-9.71341
▁शिक्षण	-9.71384
▁बनाई	-9.71488
▁खण्डमा	-9.71557
▁बाबु	-9.71569
▁जागिर	-9.71576
▁नकारात्मक	-9.71588
▁राख्दै	-9.71676
▁कोरिया	-9.71755
▁लागत	-9.71775
▁किलो	-9.71808
▁परिवारलाई	-9.71808
▁आन्दोलनको	-9.71876
▁बहुमत	-9.71894
▁किनकि	-9.7191
▁विविध	-9.72065
▁बढेर	-9.72156
▁खनाल	-9.72172
▁बने	-9.72188
▁सूर्य	-9.72426
▁त्यसरी	-9.72433
▁पर्दा	-9.72505
१०	-9.72527
▁जि	-9.72568
यु	-9.72665
रि	-9.72731
ुपर्ने	-9.72739
▁रोक	-9.72741
▁ठेक्का	-9.72742
▁सहर	-9.72827
▁नेपालीको	-9.72934
▁दलले	-9.73126
▁घिमिरे	-9.73166
▁बोर्ड	-9.73173
्छन्	-9.73202
▁कै	-9.73216
मात्रै	-9.73413
र्	-9.73575
▁थिएनन्	-9.73652
▁सल्लाहकार	-9.73655
ुपर्छ	-9.73682
▁सकिनेछ	-9.73684
रे	-9.73807
▁अनुहार	-9.73827
▁ना	-9.73973
▁पहिलोपटक	-9.74022
▁चिसो	-9.7405
▁गन्तव्य	-9.7408
▁न्यूनतम	-9.74134
▁बन्यो	-9.74251
▁मौसम	-9.7426
सु	-9.74356
▁दिनुभएको	-9.74376
▁प्रधानमन्त्रीको	-9.74376
▁निकट	-9.7439
▁बंगलादेश	-9.7442
▁माध्यम	-9.74469
▁२०१७	-9.74513
जा	-9.74548
▁स्वदेश	-9.74704
▁पक्षले	-9.74755
▁लागु	-9.74765
▁बिहे	-9.74811
▁मोडल	-9.74824
▁पढाइ	-9.74829
▁लैजाने	-9.74887
▁देवी	-9.74943
▁महोत्सव	-9.75144
▁३७	-9.75153
▁स्वतन्त्रता	-9.75182
▁साह	-9.75197
▁महा	-9.75273
▁सन्तान	-9.75319
▁उपलब्धि	-9.75332
▁केन्द्रको	-9.75357
▁रेकर्ड	-9.75422
▁तनाव	-9.75438
▁गराए	-9.7548
▁जनप्रतिनिधि	-9.75506
▁दियो	-9.75521
▁सेनाले	-9.75569
▁परि	-9.75586
▁मुद्दामा	-9.75587
थ	-9.7565
▁टु	-9.75651
▁मदन	-9.75654
▁संस्थापक	-9.75738
▁आएकी	-9.75842
▁धनगढी	-9.75871
▁प्रधानन्यायाधीश	-9.75909
▁संसद	-9.75944
▁नपाउने	-9.75977
▁गोरखा	-9.75987
▁केसीको	-9.76027
▁ढोका	-9.76047
▁३४	-9.76083
▁हङकङ	-9.7614
▁राजनैतिक	-9.76144
▁बैशाख	-9.76146
▁रहेछन्	-9.7615
▁म्याद	-9.76232
प्र	-9.76266
▁कार्यालयको	-9.76272
▁अन्तराष्ट्रिय	-9.76274
▁परिचय	-9.76303
▁सङ्घ	-9.76315
▁भाइ	-9.76348
▁कुरालाई	-9.76412
▁ताल	-9.76475
▁आव	-9.76532
▁रणनीति	-9.76554
▁हतियार	-9.7656
▁जीवनको	-9.7656
▁फल	-9.76571
▁कैद	-9.76602
▁बस्नेत	-9.76637
▁क्षेत्रबाट	-9.76698
▁प्रमाणित	-9.76708
ध	-9.76766
▁अवरुद्ध	-9.7677
्छ	-9.76776
▁मदिरा	-9.76829
मन्त्री	-9.76868
▁कांग्रेसको	-9.76917
▁तिनै	-9.76956
▁मात्रा	-9.76999
▁हिन्दु	-9.77009
▁ल्याइएको	-9.77034
▁दिन्छ	-9.77075
▁आगो	-9.77179
▁काठमाडौंको	-9.77181
▁माछा	-9.77242
▁खास	-9.77301
▁पा	-9.77338
▁हुनसक्ने	-9.77346
▁अवलोकन	-9.77458
▁सङ्घीय	-9.77462
▁डे	-9.77464
▁नगरपालिकामा	-9.77528
▁स्टार	-9.77566
▁नव	-9.77595
▁अन्नपूर्ण	-9.77634
▁बस्दै	-9.77663
▁दुर्गा	-9.77687
▁हस्तक्षेप	-9.77726
▁चर्चामा	-9.77767
▁स्वरुप	-9.77773
▁५१	-9.77777
▁बेलायत	-9.77806
▁पशु	-9.77836
▁सुनसरी	-9.77883
▁पोखरेल	-9.77889
▁अत्यधिक	-9.77906
दिन	-9.7794
▁राख्नु	-9.77952
▁आकर्षित	-9.78016
▁चन्द्र	-9.78081
▁व	-9.78125
▁अर्थमन्त्री	-9.78149
▁न्यून	-9.78159
▁ग्यास	-9.78231
▁३८	-9.78263
▁देखाउन	-9.78299
▁खडा	-9.78318
▁सहायता	-9.78408
▁चाड	-9.78493
म्	-9.78566
▁पुग्छ	-9.7861
▁उमेरमा	-9.78612
ाउन	-9.78654
▁अस्थायी	-9.78678
▁१००	-9.78706
▁परामर्श	-9.78743
▁औँ	-9.78777
▁अवैध	-9.78798
▁खोज्ने	-9.78804
▁खाता	-9.78827
▁४२	-9.78831
▁पक्कै	-9.78856
▁युनियन	-9.78989
▁तल्लो	-9.78995
▁बेपत्ता	-9.79054
▁विसं	-9.79068
एन	-9.79215
▁विधान	-9.79248
▁कु	-9.79302
छु	-9.7931
याउने	-9.79342
▁देशलाई	-9.79356
▁रहेकाले	-9.79398
▁रुपैया	-9.79419
▁सीप	-9.79469
▁उपकरण	-9.79519
▁मानिसहरु	-9.796
▁?’	-9.79628
▁टेलिभिजन	-9.79686
▁गाई	-9.79801
▁लुम्बिनी	-9.79837
▁एस	-9.7994
▁आयोगका	-9.80021
▁खनालले	-9.80066
▁हटाउन	-9.80098
▁विहान	-9.80125
▁एसिया	-9.80126
▁सक्षम	-9.80126
▁इलाका	-9.80161
▁स्थल	-9.80176
▁तोकेको	-9.80203
▁संविधानले	-9.80247
▁कामको	-9.80326
टा	-9.8034
▁भिडियोमा	-9.80392
भर	-9.80394
▁भविष्य	-9.80397
▁चलिरहेको	-9.80494
युक्त	-9.80581
▁बनेर	-9.80583
▁रात	-9.80607
▁भाडा	-9.80653
▁नागरिकलाई	-9.80673
▁एकीकरण	-9.80701
▁बिदा	-9.80712
▁स्वार्थ	-9.80734
▁परिवारले	-9.80745
▁दर्शक	-9.80784
▁सरुवा	-9.80787
▁बागलुङ	-9.80986
▁प्रवद्र्धन	-9.81005
पि	-9.81043
▁शरीरमा	-9.81059
▁पेस	-9.81077
▁ललितपुर	-9.81126
▁नष्ट	-9.81154
▁पदक	-9.81198
▁प्रधानमन्त्रीले	-9.81216
▁नक्कली	-9.81246
▁सर्वाधिक	-9.81285
ाइ	-9.8135
डि	-9.81397
▁समाप्त	-9.8148
▁जोशी	-9.81486
▁टाउको	-9.81542
▁मस्यौदा	-9.81603
▁गुरु	-9.81615
▁खोज	-9.81719
▁हिन्दू	-9.81787
▁छाडेर	-9.81823
▁सेन्टर	-9.81838
▁दृश्य	-9.81847
▁स्वीकृत	-9.81878
▁बिकास	-9.81885
▁पछिल्ला	-9.81949
▁शाही	-9.82078
▁कोइरालाले	-9.82081
▁सूचीमा	-9.82093
वाद	-9.82115
▁तीज	-9.82118
▁भू	-9.82142
▁देखा	-9.82181
▁जुनसुकै	-9.82238
▁सहितको	-9.82262
▁समयसम्म	-9.82277
▁सडकको	-9.82291
▁सुन्न	-9.82334
▁नपर्ने	-9.82352
▁माओवादीले	-9.82431
▁खुलेको	-9.8244
▁गोपाल	-9.82449
▁पुर्याउन	-9.82497
ाउँदै	-9.8254
▁ह	-9.8256
▁यसपटक	-9.82576
▁तस्बिर	-9.82582
अघि	-9.8263
▁स्मरण	-9.82661
▁लगाइएको	-9.82793
▁कप्तान	-9.82862
▁कसले	-9.82876
▁छनौट	-9.82901
▁४८	-9.82918
ंग	-9.82948
▁विद्यालयको	-9.8301
▁नियमावली	-9.83074
▁लगाए	-9.83265
▁बैंकका	-9.83356
▁भैरहेको	-9.83369
▁समूहको	-9.8345
▁दोषी	-9.83567
▁दफा	-9.83719
▁रूप	-9.83738
▁समानुपातिक	-9.83741
▁सर	-9.83749
▁उपहार	-9.83762
▁राणा	-9.83776
▁)	-9.8378
▁गाउँपालिकाका	-9.83783
▁अल	-9.83794
कर	-9.838
▁प्राधिकरण	-9.83827
पत्र	-9.83837
ीत	-9.83882
▁अर्जुन	-9.83958
▁तपाईंले	-9.83991
ेका	-9.84026
▁लेखिएको	-9.84047
▁पहाड	-9.84086
▁मोदी	-9.84104
▁वास्तवमा	-9.84108
▁विशिष्ट	-9.84133
▁सेवामा	-9.84142
▁राखी	-9.84144
▁बे	-9.84165
▁शिखर	-9.84311
▁क्रमशः	-9.84375
▁साहित्यिक	-9.84396
मन	-9.8442
▁विद्यार्थीलाई	-9.8449
टि	-9.84523
▁दशक	-9.84525
▁जनाए	-9.84536
▁प्रविधिको	-9.84537
!	-9.84543
ठ	-9.84546
▁साहित्यकार	-9.8457
▁देखिन	-9.84587
▁विद्युतीय	-9.84597
▁पुँजी	-9.84626
▁उहाँलाई	-9.84811
▁घाटा	-9.84814
▁आमाको	-9.84829
▁बालक	-9.84846
▁प्रतिष्ठान	-9.85068
▁पाकिस्तान	-9.85095
▁जरिवाना	-9.85096
▁भनि	-9.85126
▁लु	-9.85167
▁हु	-9.85189
▁देखिए	-9.85195
▁मल	-9.85316
▁महेन्द्र	-9.85351
▁अनुभूति	-9.85415
▁पारिवारिक	-9.85451
▁भारतबाट	-9.85455
▁सजिलै	-9.85477
▁अवधारणा	-9.85513
▁नायक	-9.85514
हरुका	-9.85535
▁परिषद्	-9.85567
▁श्रेष्ठको	-9.85767
▁राम्रा	-9.85887
▁अभिनेता	-9.85903
▁महत्त्वपूर्ण	-9.85954
▁टुंगो	-9.85954
▁भो	-9.85955
▁२०१६	-9.85972
जन्य	-9.86027
▁रिपोर्ट	-9.8607
▁विज्ञ	-9.86074
▁मानिसले	-9.86083
▁दरबार	-9.86087
▁एकपटक	-9.86127
▁खालका	-9.86187
▁माटो	-9.86229
▁मुलुकका	-9.86241
▁कर्मचारीलाई	-9.86251
▁सामूहिक	-9.86283
▁नेपालबाट	-9.86333
▁विपक्षी	-9.8638
▁माध्यमिक	-9.86396
▁काठमाडौ	-9.86473
▁अग्रता	-9.86532
▁भेट्न	-9.86556
▁चित्र	-9.86561
▁नेताहरुले	-9.86567
▁मलेसिया	-9.86568
▁सा	-9.8659
▁स्वीकृति	-9.86634
▁पाण्डे	-9.86635
▁सुनिश्चित	-9.8665
▁राती	-9.86658
▁अदालतको	-9.86663
▁लागे	-9.86678
▁आइरहेको	-9.86679
▁पूरै	-9.86761
▁विभेद	-9.86781
▁जनताका	-9.86806
▁पुर्व	-9.86808
▁पालना	-9.86847
▁श्रमिक	-9.86862
▁ध्यानाकर्षण	-9.86929
▁हुदै	-9.8704
▁दुईवटा	-9.87058
▁क्रान्ति	-9.8721
▁प्राथमिकतामा	-9.87273
▁ट्रम्प	-9.87286
▁पात्र	-9.87337
▁नेताले	-9.87366
▁प्रयत्न	-9.87431
▁पुग्दा	-9.87437
▁राजधानीमा	-9.87512
▁चालू	-9.87514
▁आय	-9.87578
▁लिखित	-9.87581
▁सकेनन्	-9.87654
कु	-9.87672
▁प्रस्तुति	-9.87688
▁सरकारसँग	-9.87754
▁प्राय	-9.87815
▁आफन्त	-9.87831
▁थान	-9.8784
▁किसिमका	-9.879
▁दिनदेखि	-9.87903
▁निवास	-9.8795
▁नसकिने	-9.88118
▁दीपक	-9.88197
▁टि	-9.88245
माओवादी	-9.88258
▁शिक्षाको	-9.88298
▁सभामा	-9.88303
▁इलाम	-9.88304
▁मानवीय	-9.88309
▁आफुले	-9.88381
▁सगरमाथा	-9.88405
▁उपत्यका	-9.88425
▁आवास	-9.88463
▁केन्द्रिय	-9.88471
▁गर्थे	-9.88494
▁गुणस्तरीय	-9.88675
▁कमिटी	-9.88724
▁बढिरहेको	-9.88782
▁स्वस्थ	-9.88847
कार	-9.88876
िएर	-9.88889
▁अत्यन्तै	-9.88931
▁तिम्रो	-9.88949
देवी	-9.88951
▁चित्त	-9.88982
▁चर्को	-9.88994
▁रहनेछ	-9.89017
▁ने	-9.89052
▁प्रशस्त	-9.89063
▁विज्ञापन	-9.89147
्या	-9.89148
▁मैदान	-9.89309
▁चलचित्रको	-9.89312
▁भगवान	-9.89325
संगै	-9.89334
▁बजेसम्म	-9.89351
▁बोल्न	-9.89356
▁प्रचलन	-9.89391
पन	-9.89392
▁नोट	-9.89466
▁कर्मचारीले	-9.8947
▁गर्नेछन्	-9.89482
▁फाइनल	-9.89485
▁पारिश्रमिक	-9.89509
▁महानगरीय	-9.89566
्ग	-9.89612
▁खड्काले	-9.89736
नो	-9.89737
▁प्रायः	-9.89849
▁दरले	-9.89913
▁राखे	-9.90002
▁सर्वसाधारण	-9.90035
▁गरिए	-9.90037
▁निरीक्षक	-9.90153
▁सिटी	-9.90171
▁त्यसकारण	-9.90192
▁भेटिएको	-9.90213
▁समायोजन	-9.90373
▁नाकाबन्दी	-9.90378
▁पुनर्निर्माण	-9.90411
▁कास्की	-9.90463
▁क्रान्तिकारी	-9.90464
▁कोठा	-9.90509
▁भर्खरै	-9.90554
▁रियल	-9.90611
▁विश्वमा	-9.9069
▁पढ्ने	-9.90716
▁मन्दिरमा	-9.90765
▁उहाँका	-9.90878
▁मधेस	-9.90938
▁दिगो	-9.90946
्नु	-9.91065
▁सिनेमा	-9.91077
▁लेखेको	-9.91091
▁मित्र	-9.91097
हरूका	-9.91165
▁पेट	-9.912
▁चरित्र	-9.9122
१९	-9.91267
▁उठाउन	-9.91269
मो	-9.91277
▁गोर्खा	-9.91311
▁महान	-9.91338
▁अञ्चल	-9.91449
▁मोहन	-9.91473
▁वडाध्यक्ष	-9.91478
▁लेख्न	-9.91482
▁पठाउन	-9.91537
▁कम्पनीका	-9.91548
▁एकदमै	-9.91609
▁फिल्मको	-9.9177
मि	-9.91784
▁चरण	-9.91808
मु	-9.91832
▁अवधि	-9.91834
▁कामना	-9.91841
▁प्रतिबन्ध	-9.91842
▁गौतमले	-9.91842
▁कुराको	-9.91853
▁भै	-9.91869
आफ्नो	-9.91882
▁समारोहमा	-9.91969
▁किरण	-9.91989
▁जाति	-9.92035
▁हुन्न	-9.92177
▁थापाको	-9.92245
▁संविधानमा	-9.92296
▁चाहेको	-9.92357
▁अर्थतन्त्र	-9.92495
रासस	-9.92496
▁आधिकारिक	-9.92514
▁आगलागी	-9.92533
▁इन्धन	-9.9259
▁मान्ने	-9.92727
▁खराब	-9.92781
▁छिट्टै	-9.92896
▁असल	-9.92921
▁रहनु	-9.92941
▁चाहिन्छ	-9.92979
▁गाउँपालिकामा	-9.92982
▁नुवाकोट	-9.93063
▁आर्जन	-9.93106
▁कोठामा	-9.93142
▁कल	-9.9318
▁खासगरी	-9.93182
▁गिरी	-9.93242
▁सङ्कलन	-9.93253
▁व्यक्तित्व	-9.93269
▁संविधानसभा	-9.93288
▁भन्यो	-9.93312
एम	-9.93327
▁भइ	-9.93338
▁रोकिएको	-9.93339
▁मनाउन	-9.93346
▁ज्ञानेन्द्र	-9.93405
▁रामचन्द्र	-9.93466
जि	-9.93469
▁५२	-9.93471
▁४३	-9.93592
▁बानी	-9.93616
▁हरि	-9.93679
कोट	-9.93719
▁सिंहले	-9.93726
▁स्थगित	-9.9374
▁करिव	-9.93849
▁लैजान	-9.93849
▁नेताहरू	-9.93855
▁मुटु	-9.93868
▁४४	-9.939
▁किताब	-9.93917
▁कार्यविधि	-9.93933
▁गुण	-9.93986
▁पाउनु	-9.94005
▁दाङ	-9.94025
▁अबको	-9.94029
▁दिनुपर्छ	-9.94092
▁गएपछि	-9.94231
▁व्याख्या	-9.94282
▁[	-9.94333
▁नम्बरको	-9.94453
▁थारु	-9.9446
ात्मक	-9.94524
▁रुकुम	-9.9455
चाहिँ	-9.94572
▁अरब	-9.94658
▁बौद्ध	-9.94692
▁ढकालले	-9.94775
▁क्याम्पस	-9.94803
▁गण्डकी	-9.94844
▁समझदारी	-9.94893
▁विद्यार्थीको	-9.94966
▁दशैं	-9.95027
▁हल्ला	-9.95028
▁शो	-9.9504
▁नदीमा	-9.95071
▁अभिभावक	-9.95164
▁सचिवालय	-9.95282
गो	-9.95283
▁भएकै	-9.95321
दी	-9.95338
▁पारे	-9.95396
▁परिणत	-9.95414
▁कानूनी	-9.95423
वी	-9.95479
▁४१	-9.95508
▁बस्नेतले	-9.95526
▁तारा	-9.95576
▁द्वन्द्व	-9.95606
▁टन	-9.95638
▁नमुना	-9.95666
▁फुल	-9.95715
▁निर्णायक	-9.95715
▁मोरङ	-9.95718
▁काँग्रेसका	-9.95835
▁भाषण	-9.9584
▁यथार्थ	-9.95853
▁३९	-9.95974
▁समीक्षा	-9.96031
▁छोडेर	-9.9605
▁कुरो	-9.96123
▁प्रोत्साहन	-9.96214
▁देखाउने	-9.96284
हामी	-9.963
▁लेखेका	-9.96313
▁सन्तोष	-9.96322
▁वर्षे	-9.96341
जे	-9.96507
▁चाप	-9.96583
▁फ	-9.96638
▁छठ	-9.96692
▁कुराहरु	-9.96756
▁अंग	-9.96758
▁निष्कर्ष	-9.96779
▁उस्तै	-9.96799
▁पार्टीमा	-9.96823
▁एम	-9.96865
गा	-9.96959
▁श	-9.96972
▁थियौं	-9.97019
▁बोकेको	-9.97022
▁स्रोतले	-9.97041
▁सुशासन	-9.97115
▁सुर्खेत	-9.97131
▁असन्तुष्टि	-9.97162
▁देशभर	-9.97181
▁नेपालीले	-9.9719
▁सम्पदा	-9.97311
▁विना	-9.97332
▁भरमा	-9.97426
▁विशेषज्ञ	-9.97427
▁अवस्थित	-9.97431
▁शंका	-9.97438
प्रतिको	-9.97452
▁नगर्न	-9.97455
▁बनाउँदै	-9.97479
िरहेका	-9.97496
▁डिजाइन	-9.97508
▁सस्तो	-9.97519
▁आचार्यले	-9.97531
▁दिएपछि	-9.97546
▁है	-9.97573
▁वटै	-9.97578
▁जग	-9.97599
▁तसर्थ	-9.97648
▁रचना	-9.97669
▁शैली	-9.97721
▁मजदुर	-9.97795
▁ढकाल	-9.97817
▁विमानस्थलमा	-9.97831
भारत	-9.97877
▁बिच	-9.97902
▁जोडी	-9.97913
▁हकमा	-9.98015
▁कार्यक्रमलाई	-9.98022
▁प्रशंसा	-9.98029
चार	-9.98084
▁भविष्यमा	-9.98094
र्स	-9.981
▁हिमाली	-9.98177
▁तब	-9.98194
▁संस्थान	-9.98235
▁गतिमा	-9.98283
▁चाहन्छु	-9.98291
▁देव	-9.98292
गरी	-9.98315
▁समुदायका	-9.98316
▁संकट	-9.98455
▁एसियाली	-9.98467
▁चौधरीले	-9.98488
▁समाजले	-9.98513
▁कर्तव्य	-9.98537
▁५६	-9.98613
▁संवाद	-9.98678
▁जटिल	-9.98678
▁गुल्मी	-9.98691
▁उत्तरी	-9.98756
सो	-9.98766
▁कूल	-9.98787
▁ट्रम्पले	-9.98875
▁खुट्टा	-9.98978
▁नराम्रो	-9.99044
▁रामबहादुर	-9.99063
▁प्रारम्भ	-9.99078
▁काठमाण्डौ	-9.99115
▁कैलाली	-9.9915
▁मन्त्रालयमा	-9.99179
▁अभावमा	-9.99192
स्ट	-9.99217
▁रंग	-9.9922
जु	-9.99226
▁तरिका	-9.99248
ही	-9.99302
▁ल्याएका	-9.99306
▁निकायको	-9.9932
▁भइसकेका	-9.99327
▁भ्रम	-9.99328
माया	-9.99335
भा	-9.99339
▁मु	-9.99356
▁चाहिने	-9.99415
▁समयको	-9.99451
▁उत्तम	-9.99467
▁प्राथमिक	-9.99508
▁पारेका	-9.99577
▁पशुपति	-9.99662
▁गरौं	-9.99685
▁संक्रमण	-9.99775
▁युवराज	-9.99786
▁प्रतिपक्षी	-9.99821
▁मोर्चा	-9.99824
▁हे	-9.99888
▁दि	-9.99919
▁बी	-9.99932
▁भारी	-10.0001
▁विशाल	-10.0004
▁संसार	-10.0008
▁अस्पतालको	-10.0014
▁शाहले	-10.002
▁त्यसबेला	-10.0028
▁दुख	-10.0029
▁आर	-10.0034
अब	-10.0039
▁युरोप	-10.0041
▁पि	-10.0046
▁जसका	-10.0051
▁प्रिमियर	-10.0055
ण्ड	-10.0059
▁भौगोलिक	-10.0061
▁क्रियाकलाप	-10.0066
एमाले	-10.0069
▁खेलेको	-10.0072
▁बिमा	-10.0074
▁निवासी	-10.0076
▁५८	-10.0078
िङ्ग	-10.0081
▁राय	-10.0088
▁आफुलाई	-10.0092
▁व्यवस्थापिका	-10.01
▁भाव	-10.0101
▁योग्य	-10.0106
▁विद्यार्थीले	-10.012
▁संगै	-10.0121
▁चेतना	-10.0121
▁सन्धि	-10.0128
▁नाच	-10.0136
▁चाहने	-10.0137
▁अंग्रेजी	-10.0138
▁लगत्तै	-10.0138
▁जी	-10.0139
▁फाइनलमा	-10.0141
▁उठाउने	-10.0145
▁आशंका	-10.0146
▁जित्न	-10.0147
▁संस्थामा	-10.0154
▁यसबारे	-10.0156
▁बोल्ने	-10.0157
▁०	-10.0166
▁इन्जिनियर	-10.0171
▁भा	-10.0175
▁होइनन्	-10.0178
▁गराउनु	-10.0179
▁मानिएको	-10.0185
▁दिइने	-10.0193
प्रधानमन्त्री	-10.0194
▁खोज्न	-10.0196
▁भिसा	-10.0197
▁खानेकुरा	-10.0198
▁चामल	-10.0205
▁सम	-10.0211
▁निजामती	-10.0219
▁एकताको	-10.0221
▁अधिकारको	-10.0221
▁वर्षभित्र	-10.0226
▁अधिक	-10.0228
▁झा	-10.0233
▁लाग्दा	-10.0233
▁हौं	-10.0235
▁मानिसहरू	-10.0238
▁निकायले	-10.024
▁पार्क	-10.0243
▁म्याग्दी	-10.0247
▁किसानले	-10.0249
▁लाग्दैन	-10.025
,‘	-10.0252
▁बिस्तृत	-10.0253
▁मानिसलाई	-10.0253
▁चाँडै	-10.0261
▁भन्छिन्	-10.0265
▁बिषयमा	-10.0272
▁सम्बन्धि	-10.0273
▁बराबर	-10.0278
▁त्यसबाट	-10.0283
▁मूल्यमा	-10.0284
▁विद्यालयका	-10.0287
▁हराएको	-10.0287
▁छैन्	-10.0294
▁बोलको	-10.0305
▁प्रकृति	-10.0306
▁टोल	-10.0317
▁बर्षको	-10.033
▁मावि	-10.033
▁हुनुहुन्थ्यो	-10.0332
▁पश्चात	-10.0333
त्र	-10.0336
▁कृति	-10.0336
▁निकुञ्ज	-10.0345
▁पार्दै	-10.0354
▁४६	-10.0355
▁से	-10.036
▁किन्न	-10.036
▁मङ्सिर	-10.0363
▁सम्मानित	-10.0364
▁संयोजकत्वमा	-10.0376
▁स्वयं	-10.0379
▁कार्यदल	-10.038
▁सुरुमा	-10.0382
▁व्यवसायीले	-10.0386
▁त्यहाँका	-10.0389
▁सभाको	-10.0389
▁उनि	-10.0392
ताको	-10.0393
▁गजल	-10.0394
▁तत्कालिन	-10.0396
▁त्यहाँको	-10.0401
▁पाठ	-10.0411
▁शंकर	-10.0412
ुभयो	-10.0413
घ	-10.0415
▁झनै	-10.042
▁लेखन	-10.0426
▁कान्तिपुर	-10.0426
▁रहँदा	-10.0429
▁निक्षेप	-10.0429
▁आबद्ध	-10.0435
▁सम्झना	-10.0437
▁मकवानपुर	-10.0437
▁विकृति	-10.0439
▁सधैँ	-10.0448
▁माला	-10.0452
▁दिदी	-10.0455
▁सिन्धुपाल्चोक	-10.0455
▁स्तरमा	-10.0456
▁बैंकिङ	-10.0458
▁दुइ	-10.0458
▁रोगको	-10.0458
▁कर्म	-10.0461
▁निर्वाचनका	-10.0471
▁सङ्गठन	-10.0475
▁होलान्	-10.0476
एल	-10.0477
▁गित	-10.0478
▁विरोधी	-10.0479
रूपमा	-10.0482
▁व्यापारिक	-10.0485
▁क्षमताको	-10.0491
▁एकातिर	-10.05
▁पेशा	-10.0505
▁दिवसको	-10.0508
▁ब्याज	-10.0508
▁कम्प्युटर	-10.051
▁किशोर	-10.0511
▁सैन्य	-10.0515
▁राष्ट्रको	-10.0518
▁लेखा	-10.0519
▁निर्धारित	-10.052
▁परेर	-10.0524
▁हुनुभएको	-10.0525
▁छलफलमा	-10.0532
▁अंश	-10.0534
▁परिचित	-10.0541
▁चोट	-10.0542
▁माधव	-10.0545
▁शून्य	-10.0556
▁देखिन्छन्	-10.0559
▁चाहे	-10.056
▁सहसचिव	-10.056
▁समस्याको	-10.0561
▁स्मृति	-10.0566
▁ओभरमा	-10.0573
▁नायब	-10.0581
▁पत्नी	-10.059
▁नारी	-10.059
▁इतिहासमा	-10.0591
▁प्रहरीका	-10.0592
▁विक्री	-10.0593
▁मल्ल	-10.0596
▁बु	-10.0599
▁कतार	-10.06
याउन	-10.0606
▁छायांकन	-10.061
ेन	-10.061
▁राजपा	-10.0612
िंग	-10.0616
▁लिनु	-10.0623
▁अस्पतालका	-10.0629
▁खोल्न	-10.0641
▁४९	-10.0645
▁सब	-10.0654
▁मृतक	-10.0658
▁प्रणालीमा	-10.0661
हामीले	-10.0662
▁एनआरएन	-10.0663
▁स्वदेशी	-10.0664
▁भ्रमणका	-10.0664
▁उत्साह	-10.0666
▁मिल्दैन	-10.0666
▁स्	-10.0675
▁मान्न	-10.0682
▁विपरीत	-10.0682
▁व्यापारी	-10.0685
▁स्वाभाविक	-10.0686
▁सेवाको	-10.07
▁प्रहरीलाई	-10.0701
▁राम्रै	-10.0712
▁गराइएको	-10.0714
▁उपत्यकामा	-10.0715
▁बृद्धि	-10.0715
न्छ	-10.072
▁मेसिन	-10.0723
▁सुशील	-10.0724
औं	-10.0731
▁सागर	-10.0744
▁तथ्याङ्क	-10.0744
▁स्वर्ण	-10.0746
▁सेक्स	-10.075
कुमारी	-10.0751
▁नागरिकले	-10.0754
▁बिशेष	-10.0757
▁धरान	-10.0758
▁अन्तरिम	-10.076
▁सृजना	-10.0766
▁जोगाउन	-10.0768
▁प्रजातान्त्रिक	-10.0769
▁उपेन्द्र	-10.0775
▁पोखरी	-10.0776
▁प्रदीप	-10.0785
घर	-10.0786
▁प्रतिभा	-10.0787
▁खाएर	-10.0789
▁दीर्घकालीन	-10.0789
▁हिस्सा	-10.0795
▁बिल	-10.0798
▁लिई	-10.0809
▁५३	-10.0812
▁गर्नुहोस्	-10.0813
१५	-10.0827
▁पाण्डेले	-10.083
▁शनिवार	-10.0831
▁एक्लै	-10.0831
▁महतो	-10.0832
▁सरल	-10.0833
▁८५	-10.0833
▁जित्ने	-10.0834
▁यसैबीच	-10.0842
▁लगानीमा	-10.0842
▁प्रबन्ध	-10.0847
▁आपसी	-10.0852
▁दृष्टिकोण	-10.0854
▁गो	-10.0861
▁प्रतिवद्धता	-10.0862
▁दोष	-10.0864
▁धेरैले	-10.0868
ार	-10.0869
▁राजु	-10.087
▁जात	-10.0875
▁समूहका	-10.089
ाएको	-10.0903
▁बाह्य	-10.0903
▁स्थानीयले	-10.0903
▁जाँदै	-10.0907
नारायण	-10.0907
▁यात्रामा	-10.091
▁तस्करी	-10.0912
▁बालबालिकालाई	-10.0918
▁चेक	-10.0921
▁एन्ड	-10.0921
एस	-10.0922
▁हा	-10.0925
▁प्रशासनिक	-10.0926
▁भि	-10.0934
▁विभाजन	-10.0939
७५	-10.0941
▁रुख	-10.0954
▁विनोद	-10.0957
ङ्	-10.0963
▁दान	-10.0966
▁स्कूल	-10.0967
▁आदर्श	-10.0968
▁आत्महत्या	-10.097
▁लामाले	-10.0973
▁मुक्ति	-10.0978
▁आफैले	-10.098
▁पाएपछि	-10.0981
▁७२	-10.0985
▁तिर्न	-10.0985
▁सिमेन्ट	-10.0986
▁घिमिरेले	-10.0987
▁पद्धति	-10.0988
▁४७	-10.0991
▁मूल्यांकन	-10.0993
खा	-10.0998
दर	-10.1005
▁पेट्रोलियम	-10.1005
▁तिनको	-10.1007
▁चन्द	-10.1012
▁अस्तित्व	-10.1013
▁सुरक्षाको	-10.1013
▁उर्जा	-10.1022
▁पारिएको	-10.1024
▁सेतो	-10.1033
▁वीर	-10.1039
▁एसपी	-10.1041
▁५४	-10.1043
▁अडान	-10.1046
▁आकाश	-10.1051
▁रुचि	-10.1053
वर	-10.1054
▁बजेदेखि	-10.1067
▁गइरहेको	-10.1072
▁गरिबी	-10.1075
▁दायर	-10.1076
▁तौल	-10.1079
▁सुनुवाइ	-10.1081
११	-10.1082
▁अस्वीकार	-10.1085
▁इन	-10.1086
▁खोटाङ	-10.1086
▁मुलुकी	-10.1087
▁बिस्तारै	-10.1088
▁अन	-10.109
आर	-10.109
▁दिनेश	-10.1091
▁लगेर	-10.1099
▁बलमा	-10.1104
▁भएसँगै	-10.1105
▁युग	-10.1111
देव	-10.1113
्ला	-10.1114
ेश्वर	-10.1117
▁गाउँपालिकाले	-10.1117
▁हजारौं	-10.1117
▁बत्ती	-10.1118
▁धेरैजसो	-10.1121
▁प्राध्यापक	-10.1125
▁ः	-10.1126
▁देशले	-10.1129
▁उत्पादनमा	-10.1133
▁बिरामीको	-10.1135
▁स्तर	-10.1136
▁सशक्त	-10.1138
▁समूहमा	-10.1145
▁विशेषता	-10.1146
▁बाँध	-10.1157
▁तपाईंलाई	-10.1164
▁साझेदारी	-10.1165
हो	-10.1169
▁अधिकारीको	-10.117
सन	-10.1173
▁विद्यमान	-10.1182
▁तपाईको	-10.1184
▁मानिने	-10.1196
▁समुह	-10.1197
▁नपाएको	-10.1197
▁सदुपयोग	-10.1197
▁मुल	-10.1202
▁बिरुवा	-10.1204
▁औषधी	-10.1206
▁बयान	-10.1209
▁विश्वकपमा	-10.1209
▁भीड	-10.1212
▁सवारीसाधन	-10.1213
▁मान	-10.1221
▁नीतिगत	-10.1221
▁एमालेको	-10.1227
ायो	-10.1232
ष	-10.1235
▁विष्ट	-10.1238
▁उल्लेख्य	-10.124
▁गाउँका	-10.124
कालागि	-10.1242
▁फरार	-10.1242
▁सूची	-10.1242
▁निमित्त	-10.1247
▁अनावश्यक	-10.1247
▁गर्छौं	-10.1248
▁आयुक्त	-10.1251
▁लिइएको	-10.1252
▁सुनाए	-10.1256
चा	-10.1258
▁प्रसिद्ध	-10.126
ामा	-10.1277
▁विक्रम	-10.1279
झ	-10.1279
▁विस्थापित	-10.1284
▁चिनी	-10.1285
▁बेल्जियम	-10.1288
▁हार्दिक	-10.1292
▁औ	-10.1292
▁उपन्यास	-10.1294
ुवा	-10.1295
▁गाली	-10.1296
िँदै	-10.1297
▁तिन	-10.1298
▁बरामद	-10.13
▁कोरियाली	-10.1314
▁बलिउड	-10.1319
▁फराकिलो	-10.1319
▁तामाङले	-10.1321
▁उपप्रमुख	-10.1326
▁संसद्मा	-10.1328
▁जोखिममा	-10.1329
▁यिनै	-10.1329
▁ढिलो	-10.1338
१२	-10.1348
रण	-10.1363
ीक	-10.1363
▁शक्तिको	-10.1364
▁कृषक	-10.137
▁चौकी	-10.1376
▁घन्टा	-10.1377
▁बाली	-10.1379
▁५७	-10.138
▁विस्तारै	-10.1382
▁पारी	-10.1384
▁तिहारको	-10.1385
▁अनुरुप	-10.1392
▁अनशन	-10.1404
▁पर्नेछ	-10.1406
▁जर्मनी	-10.1407
▁पति	-10.1408
▁फलफूल	-10.1416
▁लेख्ने	-10.1424
▁२०१५	-10.1427
▁उपभोग	-10.1427
▁चरम	-10.143
▁गरेमा	-10.1431
▁छाला	-10.1433
▁हैसियत	-10.1433
▁डिजिटल	-10.1436
▁जस	-10.1438
▁६४	-10.1444
▁बुझ्ने	-10.1445
▁संयन्त्र	-10.1446
▁हेर	-10.1453
अहिले	-10.1456
▁घरबाट	-10.1471
▁सामाग्री	-10.1477
▁डाटा	-10.1477
▁दरबन्दी	-10.148
▁बजारको	-10.1483
▁स्वास्थ्यमा	-10.1484
▁किरात	-10.1485
▁सञ्जालमा	-10.1489
▁क्षतिपूर्ति	-10.1492
▁नेकपाका	-10.1493
▁जापानी	-10.1501
▁अशोक	-10.1504
▁अमेरिकाले	-10.1511
▁पुगेपछि	-10.1513
पूर्वक	-10.152
▁डी	-10.153
▁शिविर	-10.153
▁पूँजी	-10.1531
▁रहर	-10.1534
▁सिँचाइ	-10.1536
▁सन	-10.1537
▁श्रीमान्	-10.1552
▁देखिँदैन	-10.1555
▁क्रियाशील	-10.1557
▁आकार	-10.1557
▁शान्त	-10.1561
▁बास	-10.1565
▁प्रतिवेदनमा	-10.1572
▁रोजगारीको	-10.158
▁अस्पतालले	-10.1594
▁समावेशी	-10.1597
▁६३	-10.1597
▁रुपैयाँको	-10.1598
समक्ष	-10.1598
▁नदिन	-10.16
▁महोत्तरी	-10.1603
▁रेखा	-10.1603
▁यू	-10.1605
ृ	-10.1606
ान	-10.1607
▁पर्यटकको	-10.1607
खोला	-10.1618
▁बोर्डले	-10.162
▁गैरआवासीय	-10.162
▁रि	-10.162
▁भट्ट	-10.1621
▁भाउ	-10.163
▁ट्रक	-10.1631
▁सद्भाव	-10.1631
▁राज्यका	-10.1636
भित्रै	-10.1643
▁देख्दा	-10.1646
▁ग्राहक	-10.1646
▁निगमले	-10.1653
साथ	-10.1657
▁दक्ष	-10.1657
▁गहिरो	-10.1659
▁युवाहरु	-10.1663
▁ठोस	-10.1665
▁न्यौपाने	-10.1666
▁आफनो	-10.1672
▁पन्तको	-10.1674
▁आफैँ	-10.1674
▁महासंघका	-10.1675
▁नेप्से	-10.1675
▁रुपैयाँमा	-10.1682
▁हर	-10.1688
▁राजश्व	-10.1691
▁हकप्रद	-10.1693
▁दोहोरो	-10.1698
▁संयोजन	-10.17
▁जय	-10.1704
▁समापन	-10.1704
▁क्लव	-10.1704
ाको	-10.1707
▁संवेदनशील	-10.1709
▁व्यवसायिक	-10.1714
▁संसारमा	-10.173
▁मन्त्रिपरिषद्	-10.173
▁लाल	-10.1736
▁अरुण	-10.1736
▁जनमत	-10.1737
▁कारोवार	-10.1737
▁रोपनी	-10.1744
▁गराई	-10.1751
]	-10.1751
▁चिन्तन	-10.1751
▁संस्कृत	-10.1756
▁सापकोटा	-10.1757
▁गराएर	-10.1765
गाउँ	-10.1766
विहीन	-10.1766
▁साविक	-10.177
वार	-10.1776
▁शैलीमा	-10.1778
एका	-10.1785
▁महिलाहरु	-10.1787
▁जुम्ला	-10.179
▁घुम्न	-10.1793
▁सकिँदैन	-10.1796
▁बुँदे	-10.1802
▁लिमिटेड	-10.1807
▁समाजवाद	-10.1808
▁जा	-10.181
▁फ्रान्स	-10.1811
▁स्वच्छ	-10.1812
▁कपाल	-10.1816
▁फैलिएको	-10.1828
औँ	-10.183
▁चुक्ता	-10.1835
पानी	-10.1836
▁जलविद्युत	-10.1841
▁कार्ययोजना	-10.1842
▁निकाल्न	-10.1842
▁नया	-10.1847
▁सधै	-10.1847
▁ओटा	-10.185
▁आमाले	-10.1851
▁साइकल	-10.1851
▁बालबालिकाको	-10.1857
टो	-10.1858
▁कुकुर	-10.186
▁बन्छ	-10.1861
▁मुलुकलाई	-10.1861
▁बराबरी	-10.1862
▁बारम्बार	-10.1864
▁गोप्य	-10.1865
▁दिई	-10.1865
▁वेला	-10.1869
▁विश्वको	-10.1873
▁बेलुका	-10.1878
▁सुवेदी	-10.1879
▁मुल्य	-10.1881
मे	-10.1884
▁पुनले	-10.1891
▁अलपत्र	-10.1893
▁गणना	-10.1894
▁भार	-10.19
▁दैनिकमा	-10.19
▁स्मार्ट	-10.1905
▁छानविन	-10.1914
▁बढुवा	-10.1914
▁कार्यक्रमहरु	-10.1915
▁बचाउन	-10.192
डे	-10.1932
▁क्षेत्री	-10.1932
▁मतगणना	-10.1938
▁विपन्न	-10.1943
▁पन्त	-10.1945
ोस्	-10.1947
▁विज्ञप्तिमा	-10.1948
▁बार	-10.1956
▁पुनःनिर्माण	-10.1964
▁पुर्याएको	-10.197
▁सहमत	-10.197
▁२०१४	-10.198
िनु	-10.1983
▁रोजगारीका	-10.1983
▁महँगो	-10.1983
▁बुबा	-10.1987
▁ठेकेदार	-10.1989
▁खोल्ने	-10.1997
▁वडामा	-10.2001
▁ड	-10.2008
▁राजकुमार	-10.2009
▁ढुंगा	-10.2017
ुहोस्	-10.2027
▁जोडिएका	-10.2034
▁दिँदा	-10.2036
▁नेपालीहरुको	-10.2038
▁पैदा	-10.2041
▁होटलमा	-10.2042
▁महाकाली	-10.2066
▁बढ्छ	-10.2068
▁खरीद	-10.2069
▁पढ्नुहोस्	-10.2071
▁रेलमार्ग	-10.2072
▁प्रशासनले	-10.2077
▁वैकल्पिक	-10.2078
▁सरोकारवाला	-10.2078
▁मिलाउन	-10.2081
▁खाद्यान्न	-10.2083
▁गठित	-10.2085
▁खोलामा	-10.2087
▁लामिछाने	-10.2089
▁राष्ट्रियता	-10.209
▁रिस	-10.2091
▁भारतसँग	-10.21
▁प्रकोप	-10.2102
▁खसेको	-10.2104
▁मञ्च	-10.2104
▁गराउँदै	-10.2105
▁पृथ्वी	-10.2107
▁पार्टीलाई	-10.2108
▁अनिल	-10.2109
▁प्रस्ट	-10.2111
▁समुदायले	-10.212
▁सम्मको	-10.212
▁आउँदो	-10.2126
▁कृष्णप्रसाद	-10.2127
▁परेपछि	-10.2139
दुई	-10.2142
▁मिलन	-10.2143
▁बाघ	-10.2145
नगर	-10.2146
▁टी	-10.2147
्थे	-10.2156
▁परिचयपत्र	-10.216
▁भूमिकामा	-10.2162
▁सम्पादक	-10.2162
▁लो	-10.2165
▁उज्यालो	-10.2167
▁अखिल	-10.2173
▁ख्याल	-10.2175
▁पात	-10.2182
▁बनायो	-10.2184
▁पावर	-10.2186
▁आयोजकले	-10.2188
▁उपचारको	-10.2194
▁विक	-10.2196
▁परिवारमा	-10.2201
▁पाउँदा	-10.2202
▁पक्षको	-10.2203
▁तालमेल	-10.2204
▁सबभन्दा	-10.2206
▁ठगी	-10.221
▁दलहरू	-10.221
द्धारा	-10.221
▁२०७१	-10.2212
▁बजेटमा	-10.2214
▁बेनी	-10.2217
▁बोनस	-10.2221
▁आन्दोलनका	-10.2221
▁लाइसेन्स	-10.2228
▁बुझाएको	-10.2239
▁देखाएर	-10.2248
▁जापानमा	-10.2248
आई	-10.2249
▁आउट	-10.2258
▁६२	-10.2258
▁भ्रमणको	-10.2263
▁मिलाएर	-10.227
▁दाजु	-10.2271
▁आफैंले	-10.2275
▁निकालेको	-10.2296
▁मिलेको	-10.2297
▁उनकी	-10.2302
▁पर्सा	-10.2309
▁निम्न	-10.2311
▁तीनै	-10.2313
▁हटाउने	-10.2314
ीको	-10.2319
▁बेलायती	-10.2319
▁पवित्र	-10.2321
▁धम्की	-10.2321
▁९५	-10.2322
▁रेग्मी	-10.2323
▁भन्छ	-10.2323
▁एमाओवादी	-10.2334
▁विभागको	-10.2335
▁तहले	-10.2345
ुहुन्छ	-10.2346
▁स्तरीय	-10.2348
▁तत्व	-10.2349
▁खोप	-10.2352
▁व्रत	-10.2353
▁धितोपत्र	-10.2355
▁ठिक	-10.2358
▁कार्यकाल	-10.2358
▁कार्यसमिति	-10.2359
▁नेपालगञ्ज	-10.2365
▁उपचारमा	-10.2374
▁चलाएको	-10.238
▁प्रादेशिक	-10.2386
▁मुस्ताङ	-10.239
▁दृष्टिले	-10.24
▁संस्कृतिको	-10.2402
▁कुमारी	-10.2403
▁धादिङ	-10.2406
वाला	-10.2409
▁हरु	-10.2413
▁विष्टले	-10.2413
▁फर	-10.2413
▁शाक्य	-10.2414
▁सकिन्न	-10.2417
▁भन्नुहुन्छ	-10.2426
▁सरोकार	-10.2427
▁ईश्वर	-10.2427
नेकपा	-10.2428
▁रोजगारीमा	-10.2429
▁अधिकतम	-10.2431
▁एयर	-10.2433
▁सक्नु	-10.2433
▁राम्ररी	-10.2442
▁अभियुक्त	-10.2443
▁प्रस्तावित	-10.2454
▁हत्यारा	-10.2455
▁मुस्लिम	-10.2455
▁निको	-10.2458
▁गर्भवती	-10.2463
▁झन	-10.2466
▁क्या	-10.2469
▁५९	-10.2469
▁प्रदर्शनमा	-10.2478
▁सहभागि	-10.2489
▁कम्पनीलाई	-10.2489
▁प्रभु	-10.2498
▁समुदायमा	-10.2509
▁लगाई	-10.2513
▁सक्दैनन्	-10.2522
▁पुरानै	-10.2524
▁आजै	-10.2528
▁हुदैन	-10.2528
▁हलमा	-10.2532
▁टिमले	-10.2532
▁योजनामा	-10.2536
ीले	-10.2537
▁नहुनु	-10.254
▁सरकारबाट	-10.254
▁आत्मनिर्भर	-10.254
▁रहँदै	-10.2541
▁छाप	-10.2544
▁भिन्न	-10.2547
▁प्राधिकरणका	-10.2547
▁राजेश	-10.2551
▁लुगा	-10.2556
▁नभएपछि	-10.2557
▁सुरेन्द्र	-10.2558
▁बासिन्दा	-10.2562
▁बुझाइ	-10.2562
▁नभएकाले	-10.2566
मय	-10.2568
▁स्याउ	-10.2575
▁५००	-10.2578
दि	-10.2587
▁अफगानिस्तान	-10.2588
▁गर्दैन	-10.2589
▁शल्यक्रिया	-10.259
▁उत्पादित	-10.259
▁घुस	-10.2591
▁बौद्धिक	-10.2595
▁रूपले	-10.2597
▁नमूना	-10.2597
▁घोषित	-10.2597
▁परिवर्तनको	-10.2598
▁कम्तिमा	-10.26
▁उनकै	-10.26
▁युवक	-10.2602
▁सरसफाइ	-10.2603
▁संविधानसभाको	-10.2607
ष्ट	-10.261
▁राजन	-10.2616
▁मन्तव्य	-10.2622
▁विरोधमा	-10.2623
दो	-10.2625
▁अभिवृद्धि	-10.2626
▁घाम	-10.2634
▁इन्द्र	-10.2639
▁मृत	-10.2644
▁भईरहेको	-10.2645
▁रसुवा	-10.2645
▁नेताहरूले	-10.2649
▁आफूहरु	-10.2652
टे	-10.2656
▁कब्जा	-10.2663
▁बाढीले	-10.2669
▁निकायमा	-10.267
▁बहिनी	-10.2671
%	-10.2673
▁मूर्ति	-10.2676
▁जितेका	-10.2678
▁लेखनाथ	-10.268
▁कूटनीतिक	-10.2682
▁सेमिफाइनलमा	-10.2683
▁भाद्र	-10.269
ाउ	-10.269
▁उत्साहित	-10.2695
▁राम्रोसँग	-10.2695
▁स्थितिमा	-10.27
▁बुझाउन	-10.27
ँदै	-10.2701
▁राष्ट्रियसभा	-10.2714
▁खुद	-10.2717
भरि	-10.2718
▁प्रतिफल	-10.2719
िका	-10.2723
ताका	-10.273
▁उठेको	-10.2731
▁तस्वीर	-10.2736
▁कुटपिट	-10.2746
▁जोडेर	-10.2748
▁फिट	-10.275
▁देउसी	-10.2755
▁पेट्रोल	-10.2756
हे	-10.2756
▁पाल्पा	-10.2756
भी	-10.2758
▁याद	-10.276
▁आवद्ध	-10.2762
ीकरण	-10.2765
▁लगायतको	-10.2772
▁अप	-10.2785
▁शहरमा	-10.2786
▁भाषाको	-10.279
▁भव्य	-10.2791
▁महानिरीक्षक	-10.2794
▁नेपालमै	-10.2794
▁भनेपछि	-10.2794
▁कता	-10.2796
▁टिका	-10.2803
दिने	-10.2807
नको	-10.2807
▁सम्बन्धलाई	-10.2811
▁सुचना	-10.2812
▁महानिर्देशक	-10.2812
▁अपहरण	-10.2814
▁गरेपनि	-10.2816
▁अष्ट्रेलिया	-10.2816
▁बनाउँछ	-10.2817
▁भित्री	-10.2825
▁आखिर	-10.2832
वे	-10.2834
▁पक्का	-10.2834
▁नदीको	-10.2836
▁न्यायिक	-10.2839
▁गर्नुहुन्छ	-10.2842
▁तिनका	-10.2842
▁स्रोतका	-10.2843
▁बल्ल	-10.2845
▁सारा	-10.285
▁मोदीले	-10.2851
शा	-10.2855
▁त्यहि	-10.2856
▁परिसर	-10.2856
▁लगानीको	-10.2857
▁खपत	-10.2864
▁प्रतिस्पर्धी	-10.2867
▁सरसफाई	-10.2874
िए	-10.2875
▁अन्त्यमा	-10.2884
▁मौद्रिक	-10.2889
▁सैद्धान्तिक	-10.2889
▁गैरसरकारी	-10.2889
▁तार	-10.2894
▁लगाउँदै	-10.2898
▁२०७०	-10.2898
▁पक्षलाई	-10.2898
▁ऋषि	-10.2901
▁चिन	-10.2903
▁बताउनुहुन्छ	-10.2904
▁बुद्धि	-10.2905
▁लघुवित्त	-10.2907
▁सट्टा	-10.2908
▁जनाउँदै	-10.2909
;	-10.2913
ुपर्यो	-10.2915
▁रहेकी	-10.2916
▁गर्मी	-10.2918
▁लिटर	-10.2922
▁मनोज	-10.2926
▁जोशीले	-10.2931
▁दिनअघि	-10.2932
▁योग्यता	-10.2932
▁राईको	-10.2934
▁दिदै	-10.294
▁समारोह	-10.2944
▁अध्ययनरत	-10.2953
▁घरमै	-10.2954
▁मौन	-10.2957
▁बस्नु	-10.2966
▁सक्नुहुन्छ	-10.2977
▁अधिवेशन	-10.2979
▁दमक	-10.2984
▁अर्कै	-10.2985
▁नत्र	-10.2985
▁अलिकति	-10.2985
▁तीनवटा	-10.2991
▁रुस	-10.2991
▁चोक	-10.2994
▁सुवेदीले	-10.2995
▁रुपले	-10.2996
▁शरीरको	-10.3007
▁शिशु	-10.301
▁मि	-10.3015
▁सहजै	-10.3016
▁चाल	-10.3019
▁७७	-10.3022
▁देखेको	-10.3025
▁उसका	-10.303
▁वैद्य	-10.3032
▁अनियमितता	-10.3035
▁बाधा	-10.3042
▁सत्तारुढ	-10.3047
वान	-10.3053
▁विशेषगरी	-10.3056
कारी	-10.3058
▁६८	-10.3069
▁पल	-10.3069
▁कुखुरा	-10.3071
३०	-10.3071
एफ	-10.3072
▁गरेँ	-10.3081
▁७६	-10.3085
▁विद्यादेवी	-10.3096
▁सिजन	-10.3097
▁विद्यार्थीहरु	-10.3099
▁झगडा	-10.31
▁शुक्ल	-10.3102
▁खोज्दा	-10.3104
▁झण्डा	-10.311
सम्मका	-10.3115
▁खतिवडाले	-10.3117
▁फर्कने	-10.3122
▁गई	-10.3124
▁चल्न	-10.3124
▁राना	-10.3126
▁एशिया	-10.3129
▁आश्वासन	-10.314
▁टेलिकम	-10.3142
▁संहिता	-10.3144
नेपाली	-10.3144
▁शान्तिपूर्ण	-10.315
▁पी	-10.3153
▁उच्चस्तरीय	-10.3153
▁जनतामा	-10.3155
▁अनुकूल	-10.3163
▁मिल्छ	-10.3164
▁अन्तरक्रिया	-10.317
▁परिमार्जन	-10.317
▁कल्याण	-10.3171
▁६६	-10.3172
▁विद्या	-10.3173
▁भूकम्पले	-10.3174
▁रक्सी	-10.3178
▁पठाइएको	-10.318
▁हेक्टर	-10.3181
▁लगानीकर्ता	-10.3182
▁इटहरी	-10.3189
▁सङ्घीयता	-10.3192
▁किनकी	-10.3193
▁तेश्रो	-10.3193
▁सुत्केरी	-10.3197
▁डट	-10.3201
▁होईन	-10.3206
▁सरस्वती	-10.3208
▁बीउ	-10.3209
▁पोखराको	-10.321
▁सौन्दर्य	-10.3213
▁प्रियंका	-10.3216
▁खण्ड	-10.3217
हरुसँग	-10.3222
▁मान्छेको	-10.323
▁शिक्षामा	-10.3232
▁शिकार	-10.3232
▁तपाईले	-10.3233
▁सकेसम्म	-10.3244
▁दुर्गम	-10.3245
▁परिकार	-10.3247
▁नेपालीलाई	-10.3247
▁६१	-10.325
▁इजलास	-10.325
▁दोलखा	-10.3252
▁स्टक	-10.3253
▁पाठक	-10.3255
▁सुरक्षाकर्मी	-10.326
▁सत्तामा	-10.3261
▁कफी	-10.3263
▁भलिबल	-10.3265
▁आरोहण	-10.327
▁नियमन	-10.327
▁ओलीलाई	-10.3273
▁मार्ने	-10.3273
▁सांगीतिक	-10.3276
▁हाराहारीमा	-10.3279
▁त्यहाँबाट	-10.3283
▁मोदीको	-10.3288
हरुबाट	-10.3292
हरूसँग	-10.3294
▁थालनी	-10.3296
▁ढुवानी	-10.3306
▁पुरै	-10.3306
▁काल	-10.3311
▁उद्योगी	-10.3319
▁होस	-10.3323
▁झैं	-10.3328
▁दिशामा	-10.3335
▁७३	-10.3337
▁२००	-10.3345
▁अनुसन्धानमा	-10.335
यू	-10.3356
▁प्रदर्शनी	-10.3363
▁नेताको	-10.337
▁तिनले	-10.3371
▁अभियोगमा	-10.3372
ेश	-10.3372
▁पारस	-10.3372
▁पुजा	-10.3377
बु	-10.338
▁व्यवहारमा	-10.3387
▁औसत	-10.3389
▁बुढा	-10.3393
▁वान	-10.3394
▁भैसकेको	-10.34
चन्द्र	-10.34
▁बैंकमा	-10.3409
बल	-10.341
▁मान्छेले	-10.3415
▁पढाई	-10.3417
▁दौड	-10.3418
▁लक्षण	-10.342
▁व्यवसायमा	-10.3426
ते	-10.343
▁सदस्यको	-10.3434
▁हरियो	-10.3439
कालीन	-10.344
मार्फत्	-10.3443
▁कम्पनीमा	-10.3445
▁भट्टले	-10.3451
▁दशैँ	-10.3452
▁गुट	-10.3452
▁ढिलाइ	-10.3471
▁नसक्नु	-10.3473
▁लोकतन्त्रको	-10.3479
▁ध	-10.3482
▁चाडपर्व	-10.3485
▁ट	-10.3494
▁युवती	-10.3509
▁सन्तुलन	-10.351
▁बेवास्ता	-10.3518
▁दलाल	-10.3521
▁भाई	-10.3524
▁वे	-10.3535
▁कामदारको	-10.3536
▁मनाङ	-10.3538
▁सार	-10.354
▁कोषाध्यक्ष	-10.3545
▁रोक्ने	-10.3548
▁बोल	-10.3556
▁रोचक	-10.3558
▁बनाउँदा	-10.3558
▁अगुवा	-10.3561
▁पत्रमा	-10.3567
▁नवराज	-10.3569
▁देवकोटा	-10.357
▁झ	-10.3571
बर	-10.3572
▁कमाएको	-10.3577
▁सिलसिलामा	-10.3578
▁आउँदै	-10.358
▁पोस्ट	-10.3581
▁चितवनको	-10.3584
▁स्वाद	-10.3584
▁केशव	-10.3592
▁कागजात	-10.3592
▁सेप्टेम्बर	-10.3592
▁काँग्रेसले	-10.3594
▁विश्वकै	-10.3595
▁अर्यालले	-10.36
▁बेर	-10.36
▁केजी	-10.3604
▁उनै	-10.3609
▁मुलुकले	-10.3614
▁.	-10.362
पर	-10.362
▁अर्कोतिर	-10.3621
भि	-10.3623
देश	-10.3625
▁निकास	-10.3628
▁ट्रेड	-10.363
▁राउत	-10.3631
प्रचण्ड	-10.3635
▁काठ	-10.3635
▁पिता	-10.3636
▁आस्था	-10.3636
▁अनुमोदन	-10.3636
▁७४	-10.3636
▁बिषय	-10.3639
हर	-10.364
▁य	-10.3645
▁पदार्थको	-10.3654
▁रुपन्देही	-10.366
▁बुवा	-10.366
▁६७	-10.3662
▁विविधता	-10.3666
▁संगठित	-10.3668
ाउँदा	-10.3672
▁राजनीतिको	-10.3678
▁पाइँदैन	-10.368
▁स्थिर	-10.368
्ड	-10.3681
▁दलहरु	-10.3687
▁आफूहरू	-10.3688
▁नदिएको	-10.3688
०००	-10.3692
▁हेटौंडा	-10.3704
▁रानी	-10.3706
▁फोहर	-10.3706
लु	-10.3708
▁प्राधिकरणको	-10.3711
▁श्याम	-10.3715
▁विश्वकपको	-10.3718
▁चैत्र	-10.372
▁संसदको	-10.3722
▁विगतका	-10.3726
▁पाँचथर	-10.3726
▁धुलो	-10.3728
▁आउँछन्	-10.373
▁भुमिका	-10.3733
▁श्रीमान	-10.3734
▁पराजुली	-10.3741
▁छिन	-10.3744
▁अमर	-10.3748
▁दास	-10.3748
▁पाटन	-10.375
ेज	-10.3754
मेरो	-10.376
▁स्रोतको	-10.376
▁नवलपरासी	-10.3762
▁प्रचलित	-10.3763
▁सार्क	-10.3764
▁महिनासम्म	-10.3775
▁अवश्य	-10.3775
▁भोली	-10.3781
मैले	-10.3787
हि	-10.3788
दार	-10.3789
▁आयल	-10.3791
▁हुन्थे	-10.38
▁लाग्नु	-10.3808
▁हामीसँग	-10.3812
▁शोषण	-10.3815
▁आपत्ति	-10.3819
▁खत्री	-10.3825
▁मिल	-10.3825
▁स्वास्थ्यकर्मी	-10.3827
▁पोष्ट	-10.3828
▁मेरी	-10.3828
ेन्द्र	-10.3831
▁अग्लो	-10.3831
▁महेश	-10.3833
▁सामेल	-10.3838
▁मेहनत	-10.3838
▁बुझ	-10.3841
▁प्रज्ञा	-10.3845
▁काभ्रे	-10.3846
▁सदस्यहरु	-10.3848
▁निकासी	-10.3856
▁महामन्त्री	-10.3856
▁ग्राम	-10.3858
▁माझ	-10.3859
जति	-10.3862
▁शरणार्थी	-10.3866
▁नम्वर	-10.3868
▁सुनको	-10.3869
▁हाउस	-10.3869
▁छोराछोरी	-10.387
▁लाग्थ्यो	-10.3879
▁संचार	-10.388
▁संवत्	-10.3882
▁भन्नेमा	-10.3883
▁अपराधी	-10.3887
▁मो	-10.3887
▁नसके	-10.3889
▁मालिक	-10.3894
▁विज्ञप्ति	-10.3896
▁छवि	-10.3896
▁तत्कालै	-10.39
▁कार्यान्वयनका	-10.3904
▁स्वरूप	-10.3905
▁संस्थालाई	-10.3905
क्क	-10.391
▁खेर	-10.3923
▁सिमाना	-10.3925
टार	-10.3925
▁नेतृत्वले	-10.3926
▁भनिने	-10.393
२५	-10.3933
▁वामपन्थी	-10.3934
बिना	-10.3935
वन	-10.3936
७४	-10.3942
▁खेलाडीले	-10.3943
▁आफ्नी	-10.3945
▁अचानक	-10.3948
▁कमाउने	-10.3949
▁सलमान	-10.3952
▁वीरगञ्ज	-10.3955
सक्ने	-10.3955
▁शाहीले	-10.3959
▁बधाई	-10.3964
▁घ	-10.3965
▁साँच्चै	-10.3969
▁महिनादेखि	-10.3969
▁अनौठो	-10.3972
ाउँछ	-10.3975
▁डोनाल्ड	-10.3977
▁गर्दैछ	-10.3977
बापत	-10.3979
▁अर्थमा	-10.3981
▁बाँच्न	-10.3983
▁गफ	-10.3989
▁बजेटको	-10.3995
▁प्रणालीको	-10.3997
▁विप्लव	-10.4006
▁सप्तरी	-10.4008
▁सहुलियत	-10.4009
▁सालदेखि	-10.4011
▁२००७	-10.4011
कन	-10.4011
▁राजधानीको	-10.4021
▁खोज्दै	-10.4025
▁भु	-10.4028
▁जु	-10.4028
▁उही	-10.4028
▁अर्याल	-10.4028
▁दिनभित्र	-10.4029
▁महासङ्घ	-10.403
▁झापाको	-10.403
▁ब्याजदर	-10.4034
▁जोड्न	-10.4034
▁सकियो	-10.4039
▁उपप्रधानमन्त्री	-10.4039
▁कार्यलाई	-10.4041
▁रही	-10.4041
▁दैलेख	-10.4043
▁राज्यमन्त्री	-10.4047
▁७८	-10.4048
डो	-10.4051
▁लगाउनु	-10.4054
घाट	-10.4055
▁पछी	-10.4058
▁सीता	-10.407
▁सयौं	-10.4074
▁महान्	-10.4075
▁त्रिवि	-10.4077
▁आकस्मिक	-10.4083
▁पहलमा	-10.4085
▁जितेर	-10.4085
▁करार	-10.4087
▁उत्सव	-10.409
▁हराउँदै	-10.4092
▁तापनि	-10.4094
▁सिधै	-10.4094
▁कुरै	-10.4094
▁बाहिरी	-10.4094
मुखी	-10.4095
▁कटौती	-10.4095
▁बीचको	-10.4096
▁फुटबलको	-10.4098
▁नसकेपछि	-10.4098
क्स	-10.4099
▁मङ्गलबार	-10.4104
▁अवकाश	-10.4111
▁खानी	-10.4113
▁सवार	-10.4117
त्व	-10.4117
्त	-10.4119
▁हेर्दै	-10.4127
▁ढल	-10.4128
▁समाजलाई	-10.4129
▁भरत	-10.4131
▁रौतहट	-10.4136
▁७१	-10.4137
▁सुनिल	-10.4138
▁जनस्वास्थ्य	-10.4141
▁मानेर	-10.4143
▁सामु	-10.416
▁सुन्तला	-10.4162
▁अन्ततः	-10.4163
पु	-10.4167
▁प्रश्नको	-10.4169
▁सुरेश	-10.417
▁सुमन	-10.4171
▁हितमा	-10.4172
▁पश्चिमी	-10.4172
▁तर्जुमा	-10.4174
▁समक्ष	-10.4175
▁ढुक्क	-10.4175
▁राखिएका	-10.4178
▁अन्याय	-10.4179
▁आजसम्म	-10.418
▁विवेक	-10.4181
▁सुधारका	-10.4181
▁होम	-10.419
▁दसैं	-10.4191
▁प्रस्थान	-10.4191
▁अवलम्बन	-10.4195
▁शहरी	-10.4197
▁प्रयोगमा	-10.4198
▁प्रेरणा	-10.4203
▁भैरहवा	-10.4205
▁आराम	-10.4206
▁बोलाएर	-10.4206
▁किम	-10.4207
▁पुलिस	-10.4207
▁बन्नु	-10.4217
▁मुनाफा	-10.422
आइ	-10.4221
▁आइरहेका	-10.4225
▁मुद्रा	-10.4228
▁गुमाएका	-10.4228
▁ठाकुर	-10.4229
▁मनोरञ्जन	-10.4229
▁सुब्बा	-10.4231
▁प्रकृया	-10.4234
▁दुध	-10.4236
▁व्यवस्थापनमा	-10.4239
▁उठाएको	-10.4242
▁जेष्ठ	-10.4242
▁गुरुङको	-10.4243
▁हजारभन्दा	-10.4243
▁बिहिबार	-10.4245
बे	-10.4245
▁बसे	-10.4249
▁जैविक	-10.4249
▁विद्रोह	-10.4251
▁पटकपटक	-10.4257
▁हदसम्म	-10.4258
▁कमाइ	-10.4261
▁प्रेमी	-10.4261
▁दोब्बर	-10.4262
▁निर्देशिका	-10.4263
▁हावा	-10.4264
▁गर्दछु	-10.4265
▁किसानलाई	-10.4265
▁निवारण	-10.4268
▁रिहा	-10.4274
▁अन्यत्र	-10.4275
▁ज्येष्ठ	-10.4275
▁कमाउन	-10.4277
िसकेको	-10.4279
▁पुरस्कृत	-10.4283
▁कमला	-10.4283
▁जोन	-10.4286
▁बार्सिलोना	-10.4296
▁पर्वको	-10.4296
▁स्थानीयवासी	-10.4308
पति	-10.4313
▁८८	-10.4316
रिया	-10.4319
▁रोल्पा	-10.432
▁माओवादीको	-10.4323
▁अनु	-10.433
▁संगठनको	-10.4332
▁भेटवार्ता	-10.434
▁सन्दीप	-10.4347
▁हिमालय	-10.4354
▁संचालनमा	-10.4357
▁जग्गामा	-10.4357
▁शुक्रवार	-10.4359
▁युएई	-10.4361
पूर्व	-10.4367
▁मुद्धा	-10.437
▁सक्नेछन्	-10.4371
▁खुलासा	-10.4383
▁सदन	-10.4388
७६	-10.4389
▁झडप	-10.4393
▁ठुला	-10.4394
▁तारिख	-10.4398
▁यतिखेर	-10.4401
▁नहोस्	-10.4403
▁सहिद	-10.4404
▁भाडामा	-10.4404
▁यसैले	-10.4407
▁विश्वव्यापी	-10.4413
▁सहकार्यमा	-10.4414
▁वायु	-10.4415
▁एल	-10.4419
▁ट्याक्सी	-10.442
▁९९	-10.4421
▁चिज	-10.4422
▁ग्लोबल	-10.4422
▁मेलमिलाप	-10.4427
▁पसिना	-10.4427
▁बालुवा	-10.4428
▁पसलमा	-10.4429
▁कारागार	-10.4433
▁कुराहरू	-10.4439
▁एफ	-10.4439
▁जिप	-10.4442
▁बनेपछि	-10.4442
▁फेसबुकमा	-10.4442
▁फर्किएका	-10.4442
▁मापन	-10.4444
▁नमिल्ने	-10.4444
▁आलु	-10.4446
▁८४	-10.4448
▁प्रेरित	-10.4448
▁एप	-10.4451
ुभएको	-10.4465
्ता	-10.4468
▁समेटिएको	-10.4473
▁औचित्य	-10.4481
▁थपिएको	-10.4489
▁लिमिटेडले	-10.4491
▁तैपनि	-10.4492
िदै	-10.4493
▁सन्दर्भ	-10.4496
▁क्षण	-10.4496
▁भावी	-10.4505
▁बहु	-10.4505
▁ज्ञवालीले	-10.4506
▁जुत्ता	-10.4508
▁विमानस्थलको	-10.4509
▁अन्तरगत	-10.451
▁सिस्टम	-10.4511
▁लाखौं	-10.4516
▁निगरानी	-10.4516
▁बरिष्ठ	-10.4517
▁चलखेल	-10.4517
▁ओम	-10.4519
▁बुधवार	-10.4521
▁गर्नुका	-10.4522
▁बलात्कारपछि	-10.4524
▁तापक्रम	-10.4526
▁पण्डित	-10.4527
िस	-10.4537
न्ड	-10.4539
▁भोक	-10.4542
▁हमला	-10.4543
▁नेवार	-10.4543
▁असन्तुष्ट	-10.4554
▁दिपक	-10.4557
▁परिसरमा	-10.4557
▁आयोगमा	-10.4558
पो	-10.456
▁वरिपरि	-10.4561
▁विस्फोट	-10.4565
▁देखाउँछ	-10.4569
▁तालीम	-10.4569
▁अङ्क	-10.457
▁महानगर	-10.4572
▁ब्याटिङ	-10.4573
▁भएँ	-10.4574
▁आपसमा	-10.4575
▁सदस्यमा	-10.4577
▁संग्रह	-10.4581
▁मध्यम	-10.4583
फा	-10.4583
▁निर्देशनमा	-10.4584
▁लागतमा	-10.4584
▁परिसूचक	-10.459
▁पायो	-10.459
▁जंगल	-10.4591
▁दक्षिणी	-10.4592
▁सुरुङ	-10.4593
▁दिएकी	-10.4593
▁सम्भावित	-10.4599
▁भोजपुर	-10.4599
▁खतिवडा	-10.46
▁नैतिक	-10.4601
▁एल्बम	-10.4604
▁पालन	-10.4604
▁प्रचारप्रसार	-10.4604
▁तिहारमा	-10.4605
▁उत्पादक	-10.4607
▁जिन्दगी	-10.4607
▁विवादमा	-10.4609
▁दिनपछि	-10.461
▁सर्वेक्षण	-10.4611
▁चुनावको	-10.4612
▁जनयुद्ध	-10.4612
चि	-10.4617
▁निराश	-10.462
▁उपयोगी	-10.4621
▁विदा	-10.4624
▁सम्पुर्ण	-10.4625
▁सम्	-10.4626
▁खेत	-10.4628
▁पोल	-10.463
▁भोलिपल्ट	-10.4632
करण	-10.4633
▁सुरक्षाका	-10.4633
कहाँ	-10.4636
▁मनोनयन	-10.4638
▁बजेर	-10.4643
▁सेट	-10.4643
▁८३	-10.4645
▁आजदेखि	-10.4648
▁भीम	-10.4649
▁जवान	-10.4649
▁टेलिफोन	-10.4653
▁खस	-10.4654
▁भिटामिन	-10.4655
▁पे	-10.466
याएको	-10.466
▁लगायतले	-10.466
▁सक्नुपर्छ	-10.4665
▁हुँदाहुँदै	-10.4666
▁स्थायित्व	-10.4666
गर	-10.4668
▁२०१३	-10.4668
▁पाउँछन्	-10.4676
▁सङ्घर्ष	-10.4678
▁हालेर	-10.4679
▁चीनमा	-10.468
▁बिष्ट	-10.4681
▁खेलाडीको	-10.4681
▁कलेजमा	-10.4682
▁कार्यान्वयनको	-10.4683
Œ	-10.4686
▁हल्का	-10.4686
▁त्यसमाथि	-10.4691
▁निकाल्ने	-10.4691
▁भगवान्	-10.4694
▁कान	-10.4696
▁सुन्दा	-10.4697
▁परीक्षामा	-10.4697
▁मूल्याङ्कन	-10.4699
▁आत्म	-10.4701
▁अटो	-10.4702
शन	-10.4703
▁जाम	-10.4704
▁सम्मेलनको	-10.4705
▁अछाम	-10.4708
्यौं	-10.4708
▁सिंहदरबार	-10.4709
बाहिर	-10.4711
▁आरम्भ	-10.4712
▁समुदायलाई	-10.4713
▁खातामा	-10.4717
▁ज्ञवाली	-10.4718
▁८२	-10.4718
▁दायरामा	-10.4718
▁बुझाउने	-10.4721
▁छोरीको	-10.4726
▁नेपालीहरु	-10.473
▁वन्यजन्तु	-10.4734
▁शौचालय	-10.4736
▁नेपालकै	-10.4736
▁खाडी	-10.4738
▁चिन्तित	-10.4743
▁६९	-10.4746
▁साधनको	-10.4749
▁युवालाई	-10.4749
▁एनआरएनए	-10.4752
▁मण्डल	-10.4752
▁दिन्छन्	-10.4754
▁मोटर	-10.4754
▁उन्मुख	-10.4757
▁खेल्दै	-10.4758
▁आदानप्रदान	-10.4761
▁मार	-10.4763
▁उदयपुर	-10.4765
▁पृथ्वीनारायण	-10.4765
▁अप्ठ्यारो	-10.4767
▁बर्दिया	-10.4768
▁मकै	-10.4769
▁घोषणापत्र	-10.477
▁गर्छन	-10.4778
▁हिन्दी	-10.4782
▁बेच्ने	-10.4783
▁सँगसँगै	-10.4783
▁बाख्रा	-10.4787
▁मेलामा	-10.479
▁गाउ	-10.4791
▁अक्टोबर	-10.4794
कर्ता	-10.4794
▁साँस्कृतिक	-10.4796
▁पाउनेछन्	-10.4803
▁लक्ष्मण	-10.4804
▁अन्न	-10.4804
▁फाइनान्स	-10.4805
▁त्याग	-10.4805
▁सदस्यले	-10.4805
▁परिक्षण	-10.4805
▁उद्योगमा	-10.4805
▁तिनीहरू	-10.4809
▁सेमिफाइनल	-10.4809
▁जुलाई	-10.4821
▁रेग्मीले	-10.483
▁घरपरिवार	-10.4835
▁खटिएका	-10.4836
▁२०६८	-10.4838
▁खाँचो	-10.484
▁मन्दिरको	-10.4843
▁बलि	-10.4843
▁सञ्चारमाध्यम	-10.4844
▁साफ	-10.4844
▁प्रिय	-10.4845
▁खेलेका	-10.4847
कला	-10.4848
▁रामेछाप	-10.4851
१८	-10.4852
▁कामलाई	-10.4855
▁पानीमा	-10.4856
▁ब्राजिल	-10.486
▁डिग्री	-10.4867
▁निमार्ण	-10.4867
▁तीमध्ये	-10.4873
▁अन्यथा	-10.4874
▁अन्त	-10.4876
▁टे	-10.4878
▁समृद्धिका	-10.4878
▁आयोजनाले	-10.4878
भो	-10.4879
▁मन्त्रिपरिषद्को	-10.4879
▁कार्यालयबाट	-10.488
▁जथाभावी	-10.488
▁खोजिएको	-10.4882
▁पल्ट	-10.4886
▁एकाएक	-10.4886
▁नामको	-10.4889
▁तिमीलाई	-10.489
▁स्पेन	-10.4898
चोक	-10.4899
▁स्नातक	-10.4903
▁सारेको	-10.4908
▁टेवा	-10.4909
▁पुस्ता	-10.4911
▁जिज्ञासा	-10.4918
▁मनाइने	-10.4922
▁पहिरोले	-10.4924
▁लोडसेडिङ	-10.4924
▁सुपर	-10.4929
▁जाडो	-10.4929
▁गंगा	-10.4932
▁ट्रफी	-10.4934
▁दिल	-10.4938
बार	-10.4941
▁समस्यामा	-10.4941
▁हुदा	-10.4942
▁क्लबले	-10.4954
▁पार्टीभित्र	-10.4956
▁बाँके	-10.4957
लगत्तै	-10.4957
्रा	-10.496
▁यातना	-10.4961
▁पुरुषको	-10.4962
▁बाम	-10.4962
▁कलम	-10.4963
▁टोलीका	-10.4965
▁जानुपर्ने	-10.4967
▁ल्याए	-10.4972
▁रोड	-10.4974
▁निषेध	-10.4977
▁कोशी	-10.4986
▁९८	-10.4988
▁स्वभाव	-10.4988
▁गुणा	-10.4992
▁काउन्सिल	-10.5001
▁एसएलसी	-10.5002
▁समाजसेवी	-10.5002
▁बुझेर	-10.5005
▁संगीतकार	-10.5011
▁प्रकृतिको	-10.5011
ीमा	-10.5013
▁देख्ने	-10.5015
१६	-10.5021
▁वाचन	-10.5023
▁शुरुवात	-10.5024
▁समग्रमा	-10.5024
▁प्लस	-10.5025
▁अनौपचारिक	-10.5029
▁सुन्ने	-10.5031
▁केटी	-10.5031
▁उद्यमी	-10.5032
▁चाहन्छन्	-10.504
टर	-10.5043
▁गतेबाट	-10.5044
▁सुरू	-10.5045
▁पाइला	-10.5045
▁उड्डयन	-10.5051
▁परिकल्पना	-10.5055
▁भवनमा	-10.5058
हाम्रो	-10.506
▁निरीक्षण	-10.506
▁नगरे	-10.5067
थ्यो	-10.5068
▁रिट	-10.5069
▁सञ्चालनका	-10.5076
▁टोलीलाई	-10.508
▁महत्त्व	-10.5081
▁ढिला	-10.5083
▁भोजन	-10.5083
▁एम्बुलेन्स	-10.5083
▁वीरगन्ज	-10.5084
ाउनु	-10.5086
▁निर्माणाधीन	-10.5088
वास	-10.509
वासी	-10.5091
▁भेटमा	-10.5092
▁कानुनको	-10.5103
▁यि	-10.5115
▁चीनका	-10.5119
▁पञ्चायत	-10.5119
▁बिरामीलाई	-10.5119
▁तिनलाई	-10.5122
▁गु	-10.5124
▁विश्वभर	-10.5126
▁महिनाअघि	-10.5129
▁सफाइ	-10.5132
▁कामहरु	-10.5132
▁निकालेर	-10.5133
दे	-10.5137
ेड	-10.5137
▁ठूलै	-10.5138
▁थाल्छ	-10.5139
▁पौडेलको	-10.514
ढ	-10.5141
▁सावित	-10.5142
▁सुवास	-10.5143
▁द्वारा	-10.5156
▁ता	-10.5156
्थ्यो	-10.5164
▁विपरित	-10.5166
▁सिंगापुर	-10.5167
▁टिभी	-10.5168
▁स्वभाविक	-10.5168
▁गर्व	-10.5169
▁किन्ने	-10.517
▁कपिलवस्तु	-10.5171
▁पैदल	-10.5173
▁करको	-10.5175
▁लाभांश	-10.5175
▁व्यावहारिक	-10.5175
▁भात	-10.5177
▁पोर्चुगल	-10.5178
▁कागज	-10.5178
▁रारा	-10.5187
▁बढाएर	-10.5188
▁माल्दिभ्स	-10.5188
▁मुखमा	-10.5194
▁काटेर	-10.5196
▁अवतरण	-10.5198
▁गृहकार्य	-10.52
▁शहीद	-10.52
▁अफर	-10.5202
▁जगत	-10.5203
▁निर्भर	-10.5206
▁महिनाभित्र	-10.5206
▁छोरो	-10.5208
▁रुपैयाँसम्म	-10.5209
▁कोरियाले	-10.5209
▁सिंगो	-10.5212
▁अचम्म	-10.5213
▁पर्खाल	-10.5221
मुक्त	-10.5224
▁संलग्नता	-10.5224
वाल	-10.5225
▁खोजीमा	-10.5225
▁लिँदै	-10.5228
▁गम्भिर	-10.5229
▁सवाल	-10.5232
▁श्रोत	-10.5235
▁रसिया	-10.5236
▁बस्दा	-10.5236
▁ब्यक्ति	-10.5238
माथिको	-10.5239
▁ठप्प	-10.524
▁प्रकरण	-10.5242
▁राजतन्त्र	-10.5243
▁आयोजनाका	-10.5246
▁नाक	-10.5247
▁आश	-10.5249
▁सदस्यता	-10.5251
पश्चिम	-10.5254
▁२०६४	-10.5254
यस	-10.526
▁कुराले	-10.526
▁सकेर	-10.526
▁निर्मित	-10.5263
▁अग्रसर	-10.5267
जो	-10.5268
▁आर्मी	-10.527
▁नोभेम्बर	-10.5278
▁लिनुपर्ने	-10.5281
त्	-10.5283
▁ढङ्गले	-10.5286
▁महर्जन	-10.5292
▁पर्छन्	-10.5295
▁भाइटीका	-10.5295
▁राख्दा	-10.5296
मेन्ट	-10.5296
▁कोइरालाको	-10.5297
१४	-10.5302
▁मोर्चाले	-10.5306
▁अक्षर	-10.5314
ाय	-10.5314
▁सिक्न	-10.5319
▁बीपी	-10.5319
▁सुन्दरता	-10.5322
▁मार्च	-10.5323
▁देशबीच	-10.5327
▁लमजुङ	-10.5329
▁भुकम्प	-10.5331
▁बेल	-10.5331
▁गीतकार	-10.5331
▁सेवाग्राही	-10.5332
▁जग्गाको	-10.5334
▁संस्करण	-10.5334
«	-10.5336
▁अतिक्रमण	-10.5337
▁महासंघले	-10.5339
▁मोह	-10.5341
▁गरिनु	-10.5341
▁पाल	-10.5346
▁आचारसंहिता	-10.5346
▁सिमा	-10.5346
▁मधुमेह	-10.5347
▁प्रसंग	-10.535
था	-10.5352
▁गठबन्धनको	-10.5352
▁अध्यक्षमा	-10.5354
▁फर्म	-10.5358
▁धमाधम	-10.536
▁८१	-10.5361
▁नर्स	-10.5361
▁बताइन्छ	-10.5363
▁वसन्त	-10.5364
▁भूकम्पपछि	-10.5367
▁सहरमा	-10.537
▁न्यौपानेले	-10.5372
हाल	-10.5372
शी	-10.5373
▁माओवादीका	-10.5374
▁सुनेर	-10.538
▁फर्केर	-10.5383
▁कोषको	-10.5383
▁हुनुको	-10.5383
▁पेसा	-10.5385
▁म्याच	-10.5387
▁सोलुखुम्बु	-10.5393
▁बताएकी	-10.5394
▁सम्भाव्यता	-10.5394
▁दिशा	-10.5394
▁मन्त्र	-10.5394
▁बिहानै	-10.5395
▁बराल	-10.5396
▁खानु	-10.5403
▁भिड	-10.5406
▁अधिवक्ता	-10.5407
▁बिस्तार	-10.5411
▁जनसङ्ख्या	-10.5412
▁गरेकाले	-10.5412
चौर	-10.5417
▁निशुल्क	-10.5418
▁व्यक्तिहरु	-10.5424
▁खाएको	-10.5424
▁विपद्	-10.5425
▁पारदर्शी	-10.5426
▁निकायका	-10.5426
▁गर्भ	-10.5432
▁गर्नै	-10.544
▁संचालक	-10.5444
▁पाटो	-10.5445
न्ट	-10.5446
▁दिलाउन	-10.5453
▁मानवअधिकार	-10.5455
▁सुदृढ	-10.5458
▁दाँत	-10.5459
▁नपाइने	-10.5459
▁छोराको	-10.546
▁कोरियाको	-10.5463
▁जिकिर	-10.5464
▁साथीहरु	-10.547
टु	-10.5472
▁माथी	-10.548
▁प्रसार	-10.5484
▁एक्स	-10.5486
▁स्थिरता	-10.5487
▁नभएसम्म	-10.549
▁प्राचीन	-10.5492
▁चिन्ह	-10.5493
▁स्तरको	-10.5498
▁बिरोध	-10.5499
▁वस्तुको	-10.5499
▁सम्ममा	-10.5501
▁अफिस	-10.5501
▁साइट	-10.5505
▁प्रशोधन	-10.5506
यता	-10.5514
▁न्यूनीकरण	-10.5515
▁छात्रवृत्ति	-10.5516
▁ज्योति	-10.5517
▁खुलेर	-10.552
▁८६	-10.5521
▁सेल	-10.5527
▁बेच्न	-10.5533
▁टोलीको	-10.5533
▁संरचनामा	-10.5541
▁ब्यक्त	-10.5545
▁पढेर	-10.5545
्यौ	-10.5547
▁बढेपछि	-10.5548
▁लिम्बु	-10.5551
▁कालोपत्रे	-10.5553
▁कतिपयले	-10.5555
▁प्रतिशतभन्दा	-10.5558
▁फिफा	-10.5559
देखी	-10.5561
▁नौलो	-10.5562
▁सिमित	-10.5567
▁सचेतना	-10.5568
▁देखेपछि	-10.5568
▁२०१२	-10.557
▁सेती	-10.557
▁अध्ययनका	-10.557
▁बसन्त	-10.5571
▁जात्रा	-10.5572
▁बो	-10.5572
▁पाइप	-10.5573
▁ढुङ्गा	-10.5575
▁महोत्सवमा	-10.5575
गी	-10.5576
▁दर्शकले	-10.5577
▁गाउँको	-10.5577
▁सवालमा	-10.5579
▁रो	-10.558
▁खाजा	-10.5581
▁प्रतिस्पर्धामा	-10.5583
▁जीप	-10.5584
▁सुखी	-10.5587
▁सापकोटाले	-10.5588
▁समर्थक	-10.5593
▁गिरीले	-10.5595
्छु	-10.5602
–‘	-10.5602
▁मिश्र	-10.5602
▁दुईजना	-10.5603
ँदा	-10.5605
▁घटेर	-10.5609
गु	-10.5612
स्त	-10.5613
▁मुस्किल	-10.5616
▁सहरी	-10.5616
स्थल	-10.5616
▁ठक्कर	-10.5617
ेपछि	-10.5618
▁मान्छेलाई	-10.5618
▁आवासीय	-10.5619
‘	-10.562
▁प्रतिनिधिसभाको	-10.5621
▁दलहरुले	-10.5622
▁चक्र	-10.5622
▁रद्द	-10.5624
झैं	-10.5624
▁सुदूरपश्चिम	-10.5625
▁जिते	-10.5626
▁उत्पादनको	-10.5627
▁अङ्ग	-10.5628
क्	-10.5632
▁जलस्रोत	-10.5635
▁प्रतिपक्ष	-10.5637
▁दाइ	-10.5637
▁आमालाई	-10.5638
▁काठमाडौँमा	-10.5639
▁मिर्गौला	-10.564
▁क्यामेरा	-10.5641
▁रोशन	-10.5645
▁राजविराज	-10.5646
▁पाप	-10.565
▁च्याम्पियनसिप	-10.565
▁बनाउनुपर्ने	-10.5659
▁कक्षामा	-10.5662
▁जन्मिएका	-10.5662
▁सहमतिमा	-10.5662
▁पाएँ	-10.5664
मलाई	-10.5667
▁लगेको	-10.5668
▁साझेदार	-10.567
▁एजेन्डा	-10.5671
▁केदार	-10.5672
▁कायमै	-10.5673
▁ज्ञापन	-10.5677
▁सिन्डिकेट	-10.5679
▁टुक्रा	-10.5685
▁दलहरूले	-10.5685
▁तपाईलाई	-10.5687
▁देखाउँदै	-10.5695
▁मोड	-10.5697
▁लागेपछि	-10.5698
▁पुष्प	-10.57
▁गरें	-10.5701
▁हिसाब	-10.5701
▁नेपालगन्ज	-10.5703
▁विदेशबाट	-10.5704
▁उठ	-10.5711
▁२०६३	-10.5713
▁निक्कै	-10.5713
▁श्रीलंका	-10.5716
▁स्तरोन्नति	-10.5717
▁गठबन्धनले	-10.5719
▁तमु	-10.5725
▁त्रास	-10.573
▁अनसन	-10.5737
▁ऐनको	-10.5739
▁कस्ता	-10.5739
▁कुनैपनि	-10.5742
▁बित्तिकै	-10.5745
▁नलाग्ने	-10.5749
▁भारतलाई	-10.5749
ुपरेको	-10.5755
▁अदुवा	-10.5756
▁भनिए	-10.5758
▁विद्यालयले	-10.5759
▁समाधानका	-10.576
▁प्रयोगकर्ता	-10.5761
▁समेटेर	-10.5762
▁भण्डारीको	-10.5765
▁वास्तविकता	-10.5765
▁आवको	-10.5768
▁कारखाना	-10.5768
▁देशभरका	-10.5769
▁फर्कन	-10.577
▁तराईका	-10.577
▁कक्ष	-10.5777
नयाँ	-10.578
▁बढेका	-10.5781
▁पाठ्यक्रम	-10.5783
▁रेमिट्यान्स	-10.5791
▁सामान्यतया	-10.5791
▁समानता	-10.5793
ाइएको	-10.5793
▁अध्यादेश	-10.5794
▁संसद्को	-10.5796
▁बिमस्टेक	-10.5801
हार	-10.5802
▁आयु	-10.5802
▁सकिन	-10.5805
▁गायन	-10.5808
▁विषयको	-10.581
चु	-10.5812
▁किशोरी	-10.5816
▁विमल	-10.5816
▁यसकारण	-10.5817
्क	-10.5818
▁आत्मा	-10.5819
▁सुनुवाई	-10.582
▁उठाएका	-10.582
▁तिब्बत	-10.5821
▁अभियानको	-10.5822
▁तुलसीपुर	-10.5824
▁लग	-10.5824
▁पिसाब	-10.5828
▁भइन्	-10.583
▁शिविरमा	-10.5831
▁महिनावारी	-10.5832
▁विधेयकमा	-10.5833
हरूबाट	-10.5833
▁वेद	-10.5834
▁बक्स	-10.5834
▁पराजय	-10.5835
▁ज्यादै	-10.5835
▁हात्ती	-10.5838
▁रहेन	-10.584
▁जुट	-10.584
▁अमृत	-10.5841
▁अंकले	-10.5847
▁बताउदै	-10.585
▁निर्देशित	-10.585
▁बढाइएको	-10.5852
नले	-10.5852
▁युनाइटेड	-10.5852
▁मेल	-10.5853
▁संशोधनको	-10.5859
▁ऐनमा	-10.586
▁नहुन	-10.5863
▁प्रचण्डको	-10.5865
▁९१	-10.5867
▁धनुषा	-10.587
धि	-10.587
▁सास्ती	-10.5874
▁एसएसपी	-10.5874
▁छक्का	-10.5874
▁बेलायतमा	-10.5875
ोस	-10.5876
▁ध्यानमा	-10.5876
▁अभिलेख	-10.5877
▁सेनाका	-10.5882
५०	-10.5882
▁सहारा	-10.5882
▁हालको	-10.5887
▁अधिकारीहरुले	-10.5888
▁बताउने	-10.5888
▁जसो	-10.5888
▁नवीन	-10.589
▁टोलीमा	-10.589
▁हालतमा	-10.5892
▁घटाउन	-10.5894
▁सहजीकरण	-10.5898
▁शासक	-10.5898
▁विभाजित	-10.5898
▁आइतवार	-10.5898
▁स्वरमा	-10.59
थे	-10.5904
▁लाइफ	-10.5905
ाए	-10.5913
▁सोमवार	-10.5913
▁भनिएका	-10.5916
▁गठबन्धनका	-10.5917
▁प्रदूषण	-10.5918
▁अत्याधुनिक	-10.5918
▁स्वामित्व	-10.5919
▁भाग्य	-10.592
्याउने	-10.5921
▁सहयोगको	-10.5924
▁त्यहीँ	-10.5924
▁अभि	-10.5926
▁जिल्लाबाट	-10.5936
▁दमन	-10.5939
खु	-10.594
▁राज्यमा	-10.594
▁नो	-10.5943
▁अरुलाई	-10.5944
▁मुक्तिनाथ	-10.5944
▁खोलेर	-10.5944
▁काङ्ग्रेस	-10.5948
▁परिवेश	-10.5952
▁नक्सा	-10.5953
▁एजेण्डा	-10.5957
▁सकिएपछि	-10.5957
▁प्रधानाध्यापक	-10.5968
▁नम्बरमा	-10.5976
▁किनारमा	-10.5979
१३	-10.5979
▁साहित्यको	-10.5981
▁बैठकको	-10.5983
▁गरेनन्	-10.5986
▁देखे	-10.5989
▁खाँदा	-10.599
कल	-10.5991
जना	-10.5992
▁खोजे	-10.5992
▁रहस्य	-10.5993
▁चाँडो	-10.5993
▁सिद्ध	-10.6001
▁संभावना	-10.6003
▁ब्यवस्था	-10.6005
▁उदय	-10.6006
न्स	-10.601
▁बुक	-10.6011
▁अत्यावश्यक	-10.6017
▁नसकेका	-10.6018
▁चुरोट	-10.6018
▁प्रतिशतसम्म	-10.6018
▁उठ्न	-10.6021
▁काट्ने	-10.6022
कर्मी	-10.6026
▁बनाइ	-10.6028
▁हाे	-10.6029
▁परिरहेको	-10.6029
▁गुगल	-10.6033
▁राहदानी	-10.6033
▁कहिलेकाहीँ	-10.6034
▁गर्नाले	-10.6037
▁सम्बद्ध	-10.604
▁रणनीतिक	-10.6045
▁जीवनशैली	-10.6048
▁पर्नेमा	-10.6049
▁साटो	-10.6049
▁हानी	-10.605
▁मतपत्र	-10.6053
ेसन	-10.6053
▁विद्रोही	-10.6056
▁सभ्यता	-10.6057
▁छेउमा	-10.6057
्री	-10.6059
▁आइपुग्दा	-10.6063
▁विश्वस्त	-10.6066
▁रुपान्तरण	-10.6067
▁हतार	-10.6071
पाल	-10.6072
▁मुआब्जा	-10.6073
▁नारायणगढ	-10.6078
▁बोट	-10.608
▁मेलम्ची	-10.608
▁जुटाउन	-10.6086
▁चाहिं	-10.6087
▁अन्तरले	-10.6087
▁रुट	-10.6091
▁उपाध्यक्षमा	-10.6091
▁पाइलट	-10.6094
▁प्रथा	-10.6094
▁मर्म	-10.6097
▁गाडीमा	-10.6097
▁मोहम्मद	-10.6098
सर	-10.6103
▁डलरको	-10.6103
बो	-10.6104
▁न्युज	-10.6108
▁धार	-10.6109
▁प्रवासी	-10.6111
▁८७	-10.6115
▁लामिछानेले	-10.6115
▁टस	-10.6119
▁जानेछ	-10.6123
▁अध्ययनले	-10.6125
▁बारा	-10.6131
र्ट	-10.6134
▁ब्लग	-10.6135
एर	-10.6137
▁अनुशासन	-10.6137
▁पुस्तकालय	-10.6143
वारी	-10.6143
▁तातो	-10.6144
▁भनेकै	-10.6144
▁क्षेत्रफल	-10.6152
▁संबिधान	-10.6153
▁बोकेका	-10.6155
▁महासंघको	-10.6155
▁लगिएको	-10.6155
सबै	-10.6156
▁महिनापछि	-10.6159
▁विधा	-10.6159
▁चीनसँग	-10.6163
▁झोला	-10.6168
▁बेलायतको	-10.6168
▁महाशाखाले	-10.6169
▁हेलिकप्टर	-10.6173
▁युके	-10.6173
▁मसँग	-10.6175
▁खाले	-10.6177
▁गर्नुपर्नेमा	-10.618
▁शर्माको	-10.6181
त्मक	-10.6188
▁पुर्ण	-10.6189
▁नुन	-10.6191
▁टावर	-10.6191
▁भूभाग	-10.6197
▁फि	-10.6197
▁७९	-10.6197
▁टर्की	-10.6198
▁गाविसमा	-10.6198
▁साहित्यमा	-10.6198
▁प्रबन्धक	-10.6204
▁अत्याधिक	-10.6204
▁उपविजेता	-10.6204
▁लिम्बू	-10.6209
▁लय	-10.6209
▁दिइन्	-10.6212
▁नेताहरुको	-10.6214
▁९३	-10.6215
▁देखाएका	-10.6217
▁अदालतका	-10.6219
▁विश्वविद्यालयका	-10.6219
▁न्यू	-10.6221
▁दोहोरी	-10.6225
्ट	-10.6225
वपूर्ण	-10.6227
▁सहि	-10.6229
▁म्यान	-10.6232
▁समितिलाई	-10.6233
▁बेग्लै	-10.6235
▁भर्खर	-10.624
▁ज्वरो	-10.624
मूलक	-10.6243
▁सक्रियता	-10.6246
छौं	-10.6248
▁गर्नुको	-10.625
▁करणी	-10.6251
द्वय	-10.6251
▁घाईते	-10.6257
▁बढ्नु	-10.626
▁प्रस्तुती	-10.6261
▁उपाध्याय	-10.6269
▁वैचारिक	-10.6271
▁हौँ	-10.6273
▁भरिएको	-10.6275
▁सिकाइ	-10.6275
▁रक्तचाप	-10.6276
▁मिडियामा	-10.6278
▁२०२०	-10.6279
▁२०११	-10.6283
▁देखाए	-10.6286
▁बाक्लो	-10.6292
▁बस्तीमा	-10.6299
भरी	-10.6299
इन	-10.6303
नाम	-10.6306
▁पर्यटकलाई	-10.6306
▁अस्थिरता	-10.6307
▁च्यानल	-10.6311
ाका	-10.6312
▁मगरले	-10.6313
▁छाड्ने	-10.6313
विरुद्धको	-10.6315
▁थियौँ	-10.6319
▁जेलमा	-10.6326
▁प्रशासकीय	-10.6328
▁चन्दा	-10.6333
▁स्कुलमा	-10.6333
▁बच्न	-10.6341
▁९२	-10.6344
▁बाबा	-10.6346
▁चा	-10.6357
▁खेलाडीलाई	-10.6362
▁मेची	-10.6364
▁कृष्णबहादुर	-10.6366
▁फुट	-10.6374
▁उपराष्ट्रपति	-10.6376
यर	-10.6378
▁अभियन्ता	-10.6384
▁वृद्ध	-10.6384
▁किनेर	-10.6384
▁राप्ती	-10.639
▁अनुवाद	-10.639
▁मानसिकता	-10.6394
▁ओलम्पिक	-10.6403
▁दुख्ने	-10.6408
▁दाहालको	-10.641
्ली	-10.6416
▁सर्व	-10.642
▁पञ्च	-10.6421
र्क	-10.6421
▁राशि	-10.6421
चे	-10.6423
ऊ	-10.6429
▁झै	-10.6429
▁एकदिन	-10.643
▁चोर	-10.6435
▁चल	-10.644
▁मध्यनजर	-10.6441
▁परिषद	-10.6445
▁थपे	-10.6448
▁लन्डन	-10.6451
▁लेखेर	-10.6453
▁हुनै	-10.6453
▁विषयवस्तु	-10.6459
▁कार्यपालिकाको	-10.6459
▁वाल	-10.646
▁फर्किने	-10.6463
▁सत्ताको	-10.6463
▁वर्गको	-10.6464
▁विभागमा	-10.6467
,'	-10.6468
▁सक्छौं	-10.6471
▁क्रान्तिको	-10.6471
▁प्याकेज	-10.6472
▁२०१०	-10.6475
िँदा	-10.6477
▁मार्न	-10.6478
▁अन्योल	-10.6479
तो	-10.648
▁सरोज	-10.6481
▁सञ्चारकर्मी	-10.6484
▁सफलताको	-10.6486
▁२०४६	-10.649
▁किसानको	-10.6491
▁गीता	-10.6492
▁छोरीलाई	-10.6493
▁डो	-10.6494
▁बालकृष्ण	-10.6495
▁च्याम्पियन	-10.6495
▁भैलो	-10.6497
▁भन	-10.6502
▁चि	-10.6504
▁रवि	-10.6505
▁शरद	-10.6507
▁निष्कासन	-10.6509
▁हि	-10.6517
▁नाराका	-10.6519
▁हृदय	-10.652
▁पत्राचार	-10.652
▁प्रेममा	-10.652
▁बिचार	-10.6523
▁चढेर	-10.6524
▁नायव	-10.6529
▁जनावर	-10.6532
▁तेक्वान्दो	-10.6536
▁अमेरिकाका	-10.6536
▁आँट	-10.6537
▁दाजुभाइ	-10.6541
▁साहले	-10.6547
र्न	-10.6549
▁भेदभाव	-10.6552
▁पक्की	-10.6552
▁अनुसन्धानका	-10.6553
▁मालपोत	-10.6557
▁भानुभक्त	-10.6567
▁उप्रेती	-10.6571
हु	-10.6572
▁इन्टरनेशनल	-10.6573
▁उनीसँग	-10.6573
ेट	-10.6573
▁समाचारमा	-10.6579
मुनि	-10.6579
▁प्रकार	-10.6581
▁भाइरल	-10.6584
▁बार्षिक	-10.6589
▁उकालो	-10.6589
▁घाँस	-10.6591
▁बढ्नेछ	-10.6592
▁व्यवसायीको	-10.6593
पश्चात्	-10.6596
तीन	-10.6599
▁बोली	-10.6601
▁डोल्पा	-10.6602
▁निस्कने	-10.6611
▁हाल्ने	-10.6612
▁प्रकरणमा	-10.6612
▁अध्यक्षता	-10.662
पछी	-10.6624
▁केन्द्रबाट	-10.6627
▁९६	-10.6628
▁समयपछि	-10.6628
▁निकायलाई	-10.6636
▁अरुको	-10.6636
▁छैनौं	-10.664
▁ट्रयाक	-10.6643
▁कटान	-10.6644
▁वीरेन्द्र	-10.6645
▁गीतहरु	-10.6646
▁जानकी	-10.6648
▁रजत	-10.6651
▁जान्छन्	-10.6652
▁दूरी	-10.6653
▁गरीब	-10.6658
▁ल्याई	-10.6669
ाउँछन्	-10.6672
▁९४	-10.6675
▁तथापि	-10.6675
▁माथिको	-10.6677
▁माग्न	-10.6678
▁गरीएको	-10.6683
▁सिक	-10.6684
▁विष	-10.6688
▁टा	-10.6689
▁भरपर्दो	-10.669
▁मलेसियामा	-10.6691
▁छात्रा	-10.6692
▁निराशा	-10.6695
▁तिहाई	-10.6695
▁ट्रेलर	-10.6697
▁शुद्ध	-10.6699
▁सिकार	-10.6704
▁निवासमा	-10.6707
▁भित्र्याउने	-10.6709
त्त	-10.671
▁जनआन्दोलन	-10.6713
▁गगन	-10.6715
▁गौरव	-10.6716
▁आयाम	-10.6721
▁राष्ट्रपतिको	-10.6722
▁खा	-10.6727
ेली	-10.6728
▁बढ्यो	-10.6728
▁जीत	-10.6732
दु	-10.6735
▁क्रमश	-10.6737
▁दे	-10.6739
▁राष्ट्रका	-10.674
▁बैङ्कको	-10.6741
▁सर्वसाधारणको	-10.6742
▁खोज्नु	-10.6743
▁भवनको	-10.6743
▁डिएसपी	-10.6744
▁पार्किङ	-10.6745
ेशन	-10.6746
▁थापालाई	-10.675
▁जमीन	-10.675
रहेको	-10.6751
▁पूर्णिमा	-10.6751
▁सास	-10.6753
▁शा	-10.6754
▁उल्लंघन	-10.6758
▁प्रत्यारोपण	-10.676
▁अध्यापन	-10.6765
िमा	-10.6767
▁चुरे	-10.6776
▁वर्गका	-10.6778
▁भगवती	-10.6779
▁किसिमले	-10.6779
▁सर्लाही	-10.678
▁गरिदिएको	-10.6785
▁प्रम	-10.6787
▁खुल्न	-10.6796
▁दुर्इ	-10.6798
आज	-10.68
▁घटनाले	-10.6801
विना	-10.6801
बाबु	-10.6801
▁रहनुभएका	-10.6804
▁सक्दछ	-10.6805
▁अपमान	-10.6807
▁जलवायु	-10.6808
▁ध्वस्त	-10.6808
▁दस	-10.6811
▁उठेर	-10.6813
▁प्रयोजनका	-10.6815
▁डिसेम्बर	-10.6816
▁वकिल	-10.6817
▁उठाएर	-10.6819
▁कार्यलय	-10.6819
▁अन्र्तगत	-10.6825
धन	-10.6828
साना	-10.6828
▁आवमा	-10.6835
▁बेलुकी	-10.6835
डाँडा	-10.6838
▁बादल	-10.6841
▁सबल	-10.6843
▁भित्रै	-10.6844
▁बालुवाटारमा	-10.6849
▁भर्न	-10.6851
सकेको	-10.6854
▁बनाउनुपर्छ	-10.6854
▁२०६२	-10.6858
▁चु	-10.6858
ठा	-10.6859
▁धनकुटा	-10.6861
▁फूलको	-10.6861
▁भूगोल	-10.6861
▁तिमीले	-10.6865
▁सोचे	-10.6868
▁वञ्चित	-10.6868
▁सार्बजनिक	-10.6868
▁पढ्दा	-10.6868
▁युनिट	-10.6869
्रो	-10.687
▁लाखभन्दा	-10.6872
▁ओरालो	-10.6873
▁आइपुगेको	-10.6874
▁लोप	-10.6876
ेक	-10.6877
▁शाहको	-10.6881
▁दिंदै	-10.6881
माझ	-10.6882
▁गण	-10.6886
▁प्रो	-10.6888
▁सफ्टवेयर	-10.6889
▁प्रभावशाली	-10.689
▁प्रोजेक्ट	-10.6891
▁चाहन्छ	-10.6898
ाल	-10.69
▁ठाउँबाट	-10.6901
▁जानकार	-10.6907
▁इन्स्योरेन्स	-10.6907
▁तनहुँ	-10.6907
▁मल्लले	-10.6909
▁अभियानलाई	-10.6911
▁सामुहिक	-10.6911
▁तुरुन्तै	-10.6911
▁ल्याउनु	-10.6913
▁वार्तामा	-10.6919
▁युगमा	-10.6921
▁व्यवस्थापनका	-10.6928
▁नगर्दा	-10.6941
▁रवीन्द्र	-10.6943
▁हट	-10.6943
▁जसमध्ये	-10.6948
▁तुलना	-10.6951
▁सल्यान	-10.6954
▁फाइल	-10.6954
▁आप्रवासी	-10.6959
▁कमै	-10.6963
▁किस्ता	-10.6963
▁पुलको	-10.6965
▁हौ	-10.6966
▁उद्योगको	-10.6969
▁जान्न	-10.6969
▁उमेरका	-10.697
▁गर्भपतन	-10.6972
▁एकमात्र	-10.6973
▁आँखामा	-10.6974
▁जीवनका	-10.6976
▁मैत्री	-10.698
▁गरिन	-10.6982
▁बस्तु	-10.6983
▁सन्तुलित	-10.6988
▁परिभाषा	-10.6988
▁युरोपेली	-10.6989
▁आसपासका	-10.6989
▁साधारणसभा	-10.6989
▁विधामा	-10.6993
सहितका	-10.6997
▁पदका	-10.6999
▁शीर्षकमा	-10.6999
▁कर्ण	-10.7001
▁कच्चा	-10.7005
▁जनक	-10.7007
▁घाउ	-10.7008
▁सक्यो	-10.7013
▁खेलाडीहरु	-10.7013
▁पाएर	-10.7013
▁उजागर	-10.7019
▁समर्पित	-10.7021
िम	-10.7021
िल	-10.7023
▁रामप्रसाद	-10.7024
▁क्यानडा	-10.7025
▁महीना	-10.7025
▁गरेन	-10.7026
▁जनचेतना	-10.7026
▁भइसक्यो	-10.7027
▁गरौँ	-10.7035
▁जीवित	-10.7036
ुन	-10.7037
▁भुटान	-10.7037
▁भेटिएका	-10.7042
▁सुमधुर	-10.7043
▁सम्झौतामा	-10.7044
▁कुशल	-10.7045
▁हिरासतमा	-10.7046
▁नामावली	-10.7048
▁थारू	-10.7049
चीन	-10.7049
▁राख्नुपर्ने	-10.7053
▁महेन्द्रनगर	-10.7053
▁क्षेत्रले	-10.7053
▁थुनामा	-10.7054
▁यादवको	-10.7054
▁बुझेको	-10.7054
▁उत्तीर्ण	-10.7054
▁शपथ	-10.7055
यन	-10.7061
न्द	-10.7069
▁सम्बन्धन	-10.707
▁करोडको	-10.707
▁नसकिएको	-10.7071
▁काठमाडौंका	-10.7071
▁बिक्रि	-10.7072
▁दण्ड	-10.7074
▁जीव	-10.7081
▁दिइरहेका	-10.7082
▁उपत्यकाका	-10.7083
▁पर्दै	-10.7083
▁विवादित	-10.7089
▁पालामा	-10.7089
▁वातावरणमा	-10.709
▁शर्त	-10.7091
▁काग	-10.7092
▁प्रशारण	-10.7093
▁वर्षभन्दा	-10.7093
▁संसारका	-10.7094
▁साताको	-10.7094
▁खाका	-10.7098
▁कत्ति	-10.71
▁निष्कर्षमा	-10.71
िज	-10.7103
▁आगमन	-10.7104
▁सोच्न	-10.7104
▁अपरिहार्य	-10.7105
▁क्रोएसिया	-10.7107
▁जडीबुटी	-10.711
▁अर्काको	-10.7111
▁देखिएन	-10.7113
क्रममा	-10.7114
▁महत	-10.7117
▁जातिको	-10.712
▁ललितपुरको	-10.7121
▁निबन्ध	-10.7121
▁पीडितलाई	-10.7122
▁पर्नु	-10.7127
▁दूतावास	-10.7129
▁मुगु	-10.713
▁खोजेका	-10.7132
▁वेबसाइट	-10.7132
▁रत्न	-10.7133
▁सङ्गीत	-10.7134
▁२०६९	-10.7134
▁कोषमा	-10.7135
▁सुनार	-10.7136
▁अभियानका	-10.7137
▁डोटी	-10.7141
▁स्थलगत	-10.7145
▁गरेकै	-10.7146
▁आक्रोश	-10.7153
१७	-10.7153
▁गाँउपालिका	-10.716
▁पढ	-10.7163
▁तातोपानी	-10.7167
▁कञ्चनपुरको	-10.7168
▁संसारको	-10.7169
▁घले	-10.717
▁नेटवर्क	-10.7174
▁नआएको	-10.7175
▁टीकापुर	-10.7175
▁अप्रिल	-10.7177
▁९७	-10.7177
▁पनी	-10.7177
▁विमोचन	-10.7178
▁नर्सिङ	-10.718
▁क्याम्प	-10.7183
बास	-10.7186
दान	-10.7186
▁हजुर	-10.7189
▁गैरकानुनी	-10.7194
▁कालिका	-10.7195
▁तराईमा	-10.7195
▁दाना	-10.7199
▁गर्दैछन्	-10.7199
▁देउवाको	-10.72
▁अपिल	-10.7204
▁दिनका	-10.7213
▁चाहिएको	-10.7213
ग्	-10.7214
▁लियो	-10.7215
▁सन्तुष्ट	-10.7216
▁तेज	-10.7217
▁सक्दो	-10.7217
▁बसपार्क	-10.7218
ेल	-10.7219
▁पार्छ	-10.7219
्रे	-10.7222
भित्रको	-10.7223
▁सरह	-10.7224
▁फेसन	-10.7227
बजार	-10.7229
रू	-10.7231
▁शरीरलाई	-10.7231
▁खरेल	-10.7232
▁पलायन	-10.7234
▁डाँडा	-10.7237
▁थ्री	-10.7239
▁स्वर्ग	-10.7241
▁बराबरीमा	-10.7242
▁प्रतीक	-10.7246
लिन	-10.7247
▁आश्चर्य	-10.7256
▁गुरुयोजना	-10.7256
▁पढाउने	-10.7258
▁पढौ	-10.7259
▁दो	-10.726
▁टोपी	-10.726
▁दर्शकको	-10.7262
▁शेर्पाले	-10.7269
▁रोनाल्डो	-10.7272
▁दृष्टि	-10.7273
▁व्यवसायीलाई	-10.7275
▁भट्टराईको	-10.7276
▁टिमको	-10.7276
▁गभर्नर	-10.7279
▁शिक्षकको	-10.7281
▁उपकुलपति	-10.7284
▁रूपैयाँ	-10.7285
▁विरामी	-10.7286
▁परियार	-10.7287
ची	-10.7288
▁आइसकेको	-10.7289
▁वर्षयता	-10.7296
▁बग	-10.7297
▁माग्ने	-10.7298
▁तिर्ने	-10.7299
▁हिमालयन	-10.73
▁काँग्रेसको	-10.7301
▁महाशाखा	-10.7308
▁बर्खास्त	-10.7312
▁ओभर	-10.7312
▁प्रगतिशील	-10.7314
▁रिजाल	-10.7317
▁युनिभर्सिटी	-10.7318
▁बढे	-10.732
▁नहर	-10.732
▁गरिदिन	-10.7321
▁त्रि	-10.7324
▁अनुपात	-10.7326
▁खै	-10.733
▁भण्डारण	-10.7331
▁गाउन	-10.7333
▁कार्कीको	-10.7335
▁खड्काको	-10.7337
▁कार्यकर्ताले	-10.7342
▁कार्यकर्तालाई	-10.7343
िनी	-10.7347
▁उपसमिति	-10.7349
▁अवस्थाको	-10.735
हीन	-10.735
▁जबकि	-10.7357
▁सयभन्दा	-10.7358
तामा	-10.7359
▁छापिएको	-10.736
बारी	-10.7361
▁महराले	-10.7361
▁बाजा	-10.7361
▁भेगमा	-10.7365
▁अर्कोतर्फ	-10.7367
▁रूपान्तरण	-10.7367
▁पुग्नु	-10.7367
▁लाज	-10.7372
▁चुनौति	-10.7375
▁इन्जिनियरिङ	-10.7376
▁जहिले	-10.7376
▁गहना	-10.7379
नमा	-10.7379
▁विगतको	-10.738
▁क्यान	-10.7384
▁मारिएका	-10.7385
▁केरा	-10.7386
▁चारवटा	-10.739
▁बहानामा	-10.7391
▁काट्न	-10.7392
▁म्यानपावर	-10.7393
▁कठोर	-10.7396
▁पाउनुपर्ने	-10.7398
▁हुन्छन	-10.7402
▁माता	-10.7403
▁त्यसअघि	-10.7406
बमोजिम	-10.7408
▁उठ्ने	-10.7409
▁प्रदेशसभाको	-10.741
▁साह्रै	-10.741
▁मजबुत	-10.7423
▁स्वतः	-10.7423
▁टुङ्गो	-10.7428
भाव	-10.7432
▁कमरेड	-10.7434
▁महिलाहरुको	-10.744
▁प्रतिबद्ध	-10.7441
▁रंगशालामा	-10.7441
▁नर	-10.7442
▁हिरो	-10.7443
▁मिलाउने	-10.7446
▁कलाकारको	-10.7448
▁शुभारम्भ	-10.745
▁अर्जेन्टिना	-10.745
▁सहमतिको	-10.7455
▁सदा	-10.7455
मणि	-10.7455
▁दलीय	-10.7457
ेस	-10.746
▁फा	-10.7462
▁महानगरपालिकाले	-10.7462
▁छापा	-10.7464
▁स्थानबाट	-10.7466
▁च्याट	-10.747
पे	-10.747
▁कदर	-10.7471
गन	-10.7471
▁नजाने	-10.7472
▁अधिकारीलाई	-10.7475
▁२००८	-10.7477
▁हत्याको	-10.7477
▁एकदम	-10.7478
▁विषादी	-10.7479
▁महासमिति	-10.7479
▁नसकेर	-10.7482
▁देवकोटाको	-10.7483
▁रङ	-10.7485
▁प्रदायक	-10.7485
▁फेल	-10.7486
▁शाखाका	-10.7489
ाएका	-10.7491
▁पासपोर्ट	-10.7491
▁वर्णन	-10.7493
▁घरधुरी	-10.7506
▁किमी	-10.7506
▁एन्फा	-10.7511
▁लोकप्रियता	-10.7513
▁बाहुन	-10.7517
▁तहलाई	-10.7519
▁नामबाट	-10.7525
▁दिनभर	-10.7528
▁मन्त्रिपरिषद	-10.7535
▁मागेको	-10.7538
▁तपाइँ	-10.7538
सकेका	-10.754
▁सिद्धार्थ	-10.7542
▁थ	-10.7543
▁हास्य	-10.7544
▁क्लबका	-10.755
▁ओखलढुंगा	-10.7552
▁दिइरहेको	-10.7553
▁हाम्रै	-10.7555
▁लहर	-10.7558
▁नजर	-10.756
▁८९	-10.7562
▁सत्र	-10.7569
वल	-10.757
ाउदै	-10.7571
▁टेलिकमले	-10.7571
▁स्थलमा	-10.7574
▁मोर्चाका	-10.7576
▁ग्रुप	-10.7577
▁अर्थतन्त्रमा	-10.7579
▁वचन	-10.7579
▁घटनाका	-10.758
▁कालीगण्डकी	-10.7584
▁लोभ	-10.7585
िलो	-10.7591
▁बर्षमा	-10.7596
▁अनुहारमा	-10.7598
▁माइती	-10.76
▁मिलियन	-10.7602
लले	-10.7606
▁बजेतिर	-10.7609
ाङ	-10.7614
ाहा	-10.7617
▁खानपान	-10.7619
▁थलो	-10.7619
▁मोडेल	-10.762
िता	-10.7623
▁नजिकैको	-10.7623
▁पिउने	-10.7626
▁निरौला	-10.7627
▁सञ्जय	-10.7631
्ती	-10.7632
▁पेनाल्टी	-10.7634
प्रकाश	-10.7635
▁कार्यको	-10.7635
अनुरूप	-10.7636
▁शब्दमा	-10.7637
▁चितवनका	-10.7639
▁वृद्धिदर	-10.7646
▁वातावरणीय	-10.7648
▁लागिरहेको	-10.7652
▁दिवसका	-10.7652
▁कथामा	-10.7652
▁वित्त	-10.7654
▁सुचारु	-10.7654
बिच	-10.7654
▁आँसु	-10.766
▁शिर	-10.7662
▁कार्यसम्पादन	-10.7666
▁विश्वकर्मा	-10.7667
▁ठ	-10.7671
झैँ	-10.7676
▁बङ्गलादेश	-10.7677
▁हस्पिटल	-10.7681
▁बन्दरगाह	-10.7681
▁भन्थे	-10.7681
▁घाँटी	-10.7683
▁छुट्टाछुट्टै	-10.7684
▁उल्टो	-10.7685
▁झरेको	-10.7686
बेला	-10.7686
▁प्रक्रियालाई	-10.7689
▁बोध	-10.769
▁जबर्जस्ती	-10.7691
▁चरा	-10.7693
लगायतले	-10.7695
▁अज्ञात	-10.7696
▁फौजदारी	-10.7696
▁सक्छु	-10.7696
▁आन्दोलनलाई	-10.7696
▁प्रर्दशन	-10.7699
▁बताउँछिन्	-10.7702
ाँ	-10.7704
▁फुटबलमा	-10.7707
▁खानेपानीको	-10.7709
▁सार्थक	-10.771
▁कसलाई	-10.7712
▁सर्वसम्मत	-10.7716
▁बर	-10.7716
▁लण्डन	-10.7718
▁कृषिमा	-10.7722
▁पत्रिकामा	-10.7723
▁बनाउनका	-10.7725
▁नामले	-10.7725
▁उपसचिव	-10.7726
बाद	-10.7727
▁तरलता	-10.7728
▁तिरेर	-10.7733
▁घटनालाई	-10.7734
▁जटिलता	-10.7735
▁महशुस	-10.7737
▁बच्चाको	-10.7737
▁हुनुका	-10.7738
▁तीजको	-10.774
▁भय	-10.7742
▁मनोविज्ञान	-10.7743
▁साप्ताहिक	-10.7746
▁उमेश	-10.7746
छन	-10.7746
▁सम्पर्कमा	-10.7751
▁तुलनात्मक	-10.7752
▁हुनुभयो	-10.7756
▁श्रेष्ठलाई	-10.7762
▁थिइन	-10.7766
▁पूर्णता	-10.7767
▁सहयोगका	-10.777
▁त्यसमध्ये	-10.7774
▁नेतालाई	-10.7774
▁भेटेर	-10.7778
▁विरुद्धमा	-10.7778
▁कारबाहीको	-10.7778
▁मोर्चाको	-10.7779
▁घोराही	-10.7783
▁बन्दुक	-10.7784
▁तुरुन्त	-10.7784
▁अफ्रिका	-10.7789
▁परिवर्तनका	-10.7791
▁बाहिरबाट	-10.7793
▁प्रतिष्ठा	-10.7795
▁निष्काशन	-10.7797
▁कोहि	-10.7799
फल	-10.7803
▁बै	-10.7804
निया	-10.7805
▁चौका	-10.7805
▁त्यत्तिकै	-10.7806
▁मेट्रिक	-10.7809
▁बुझेका	-10.7811
▁निगम	-10.7813
▁आईतबार	-10.7814
▁जाजरकोट	-10.7818
ाव	-10.782
▁अर्पण	-10.7821
▁भक्तपुरको	-10.7826
▁नाग	-10.7827
▁रेड	-10.7827
▁प्रालि	-10.783
काठमाडौं	-10.7832
▁गोष्ठी	-10.7832
▁वनस्पति	-10.7832
▁स्मार्टफोन	-10.7835
▁हिउँ	-10.7835
▁सकिएन	-10.7836
रहित	-10.7837
▁गुफा	-10.7839
अस	-10.7841
▁उचाइ	-10.7842
▁फड्को	-10.7844
▁एशियाली	-10.7846
▁दैनिकी	-10.785
▁यात्राको	-10.7851
▁पहिरन	-10.7852
श्री	-10.7854
▁सर्वसाधारणलाई	-10.7856
▁थर	-10.7866
▁जनकपुरधाम	-10.7869
▁हाफमा	-10.7871
▁अवस्थालाई	-10.7877
िसकेका	-10.7878
▁डान्स	-10.7879
▁संरक्षणमा	-10.7883
▁जुवा	-10.7884
▁गर्दैनन्	-10.7886
▁इच्छुक	-10.7899
▁दिनमै	-10.7905
▁सुस्त	-10.7905
▁माफी	-10.7912
▁चिकित्सकले	-10.7913
▁गहन	-10.7914
▁महिलाहरू	-10.7916
▁सिरहा	-10.7916
▁सभासद	-10.7916
▁आपराधिक	-10.7917
▁गएराति	-10.7917
▁पाइयो	-10.7918
▁रोगी	-10.7918
िन्छन्	-10.7922
▁दिनहुँ	-10.7926
▁बुहारी	-10.7929
▁गुड	-10.793
▁तीव्रता	-10.7931
▁निगमको	-10.7931
सन्	-10.7932
▁केटा	-10.7933
▁कोरियामा	-10.7934
▁बितरण	-10.7935
▁बेचेर	-10.7936
▁सभाका	-10.7939
▁डुबानमा	-10.7939
▁दिक्तेल	-10.7942
▁इरान	-10.7943
▁स्तम्भ	-10.7946
▁पश्चिमाञ्चल	-10.7947
▁वस्ती	-10.7948
▁रेडक्रस	-10.7953
▁कैयौं	-10.7954
४०	-10.7956
वीर	-10.7958
▁महादेव	-10.7959
▁दललाई	-10.796
▁मर्यादा	-10.7961
▁हत्यामा	-10.7961
▁खुल्ने	-10.7962
▁बेरोजगार	-10.7965
ैपर्छ	-10.7966
▁कलाकारहरु	-10.7967
▁हाइ	-10.797
▁चौ	-10.7971
▁शायद	-10.7971
▁अन्तरराष्ट्रिय	-10.7972
▁प्रतिष्ठानका	-10.7973
▁तिज	-10.7976
▁उद्योगले	-10.7977
▁देखेका	-10.7982
▁माओबादी	-10.7983
▁डटकम	-10.7987
▁उल्लेखित	-10.7987
▁नीतिमा	-10.799
▁स्वयम्	-10.7991
▁निष्पक्ष	-10.7992
▁छाडेको	-10.7995
▁अब्बल	-10.7996
▁जनजीवन	-10.7996
राज्य	-10.7997
▁?”	-10.7999
▁जनवरी	-10.8003
▁उनीहरूका	-10.8003
▁राजाको	-10.8007
▁उचाइमा	-10.8009
▁उल्टै	-10.8009
▁करोडौं	-10.801
▁शताब्दी	-10.8011
▁बर्षीय	-10.8013
▁घर्ती	-10.8013
▁वामदेव	-10.8016
▁राख	-10.8016
▁वर्षिय	-10.8016
कृष्ण	-10.8017
▁बिद्यालय	-10.8018
▁आउँदैन	-10.8018
▁जमिनमा	-10.802
▁उखु	-10.8023
▁बनेपा	-10.8025
▁शत्रु	-10.8026
▁पशुपालन	-10.8026
▁अर्थतन्त्रको	-10.8029
ुस्	-10.8032
▁साबित	-10.8033
▁महत्वपुर्ण	-10.8033
▁न्यूज	-10.8033
▁त्यसैको	-10.8034
▁गोरु	-10.8037
▁ठाउँको	-10.8041
▁आफैँले	-10.8042
▁पुस्तकमा	-10.8046
▁१५०	-10.805
▁गर्यौं	-10.8054
▁टेक	-10.8056
▁मेगावाटको	-10.8056
▁सुखद	-10.806
▁मिल्नेछ	-10.8062
▁बेचबिखन	-10.8063
▁पोषण	-10.807
▁धोका	-10.8072
क्ष	-10.8076
▁बिश्व	-10.8081
▁आदिको	-10.8082
▁प्रयासमा	-10.8082
▁कोट	-10.8083
पोखरी	-10.8093
▁देख	-10.8096
▁सङ्केत	-10.81
▁गणित	-10.8101
▁शीर्षक	-10.8102
▁हौसला	-10.8112
▁घटनाहरु	-10.8112
▁काठमाडौंबाट	-10.8114
▁विदेशमन्त्री	-10.8116
▁इन्टरनेसनल	-10.8118
कम	-10.812
▁बिरुद्ध	-10.8121
▁निर्दोष	-10.8124
द्ध	-10.8128
▁शाक्यले	-10.8128
▁शास्त्र	-10.8129
▁विश्वविद्यालयको	-10.8131
▁कारक	-10.8132
▁तहसम्म	-10.8138
▁नियत	-10.8139
▁जिवन	-10.814
जित	-10.8141
▁आयुर्वेद	-10.8142
▁लड्ने	-10.8142
▁गरिदिने	-10.8142
▁दवाव	-10.8145
▁३००	-10.8145
▁दसैँ	-10.8146
▁हुँदैनन्	-10.8148
▁वरपर	-10.8153
▁तिर्नुपर्ने	-10.8155
▁पछाडी	-10.8155
▁रंगशाला	-10.8159
▁सिक्किम	-10.8162
▁नी	-10.8163
▁प्रान्त	-10.8166
▁मुम्बई	-10.817
▁जर्मन	-10.8171
▁भन्नुभएको	-10.8173
सचिव	-10.8178
▁खोलाको	-10.8178
▁सचिवालयले	-10.8179
▁गेट	-10.8179
▁षड्यन्त्र	-10.818
▁अनुसारको	-10.8182
शि	-10.8183
▁पढ्दै	-10.8184
▁घट्दै	-10.8184
भाग	-10.8184
▁गाँउ	-10.8191
योग्य	-10.8196
▁ढाँचा	-10.8196
ुहुन्थ्यो	-10.8198
▁धर्मको	-10.8199
▁ताजा	-10.8199
▁गुमाएको	-10.8199
▁सिटौला	-10.82
▁स्वरोजगार	-10.8203
▁भुसाल	-10.8207
▁पदबाट	-10.8209
▁मिठो	-10.8212
▁हिँड्ने	-10.8215
▁राष्ट्रपतिले	-10.8215
▁दूरसञ्चार	-10.8217
▁बदर	-10.8218
▁पशुपतिनाथ	-10.8219
▁पुरुषले	-10.8221
▁बुद्धको	-10.8222
▁उत्रिएका	-10.8226
▁अण्डा	-10.8227
▁ताप्लेजुङ	-10.8236
▁द्विपक्षीय	-10.8236
▁डिजेल	-10.8238
▁दस्तावेज	-10.8239
▁पाउँछ	-10.8243
▁सुरज	-10.8245
▁बचाउ	-10.8246
▁आइडल	-10.8249
▁गर्नसक्ने	-10.8249
▁संकल्प	-10.8249
▁आचरण	-10.8256
▁महोत्सवको	-10.8257
▁पक्षबाट	-10.826
ज्यू	-10.8262
▁हुम्ला	-10.8262
▁मुटुको	-10.8265
▁नेताहरूको	-10.8266
▁कार्यपालिका	-10.8267
▁नहोला	-10.8267
▁मिहिनेत	-10.8269
▁असहमति	-10.8269
▁गर्नुपर्दछ	-10.8271
▁उपज	-10.8273
उन	-10.8274
▁उन्नत	-10.8274
▁दशकमा	-10.8275
▁बज	-10.8275
▁पठाएका	-10.8276
▁सेवाका	-10.8277
▁खटिएको	-10.828
▁बखत	-10.828
▁न्यायको	-10.8283
▁बाणिज्य	-10.8286
▁हिम्मत	-10.8286
▁आक्रमणमा	-10.8296
▁२०१९	-10.8297
▁आचार्यको	-10.8305
▁राख्छ	-10.8307
▁मलाइ	-10.8307
▁चितवनमा	-10.8309
▁एकैपटक	-10.8309
▁पानीले	-10.8311
▁एभरेष्ट	-10.8311
▁बढाउनु	-10.8312
▁सानै	-10.8316
▁हिँड्न	-10.8318
▁न्यु	-10.832
▁हाल्न	-10.8326
▁रूख	-10.8328
▁विषयगत	-10.8328
▁धरहरा	-10.8329
▁भारु	-10.8331
▁बिगत	-10.8334
▁भुवन	-10.8334
िला	-10.8335
▁स्याङ्जा	-10.8337
ल्याण्ड	-10.8338
▁व्यवस्थापनको	-10.8341
▁बढ	-10.8343
▁पदम	-10.8346
▁महाशाखाका	-10.8348
▁ध्रुव	-10.8348
▁लागेन	-10.8349
▁एप्पल	-10.8349
▁सहभागीता	-10.835
▁रक्त	-10.8353
▁फार्म	-10.8356
▁पारि	-10.8356
▁अजय	-10.8358
▁तुलसी	-10.8359
▁कठिनाइ	-10.836
▁ग्राहकले	-10.8364
म्यान	-10.8371
▁रस	-10.8372
▁इजरायल	-10.8374
▁जानुपर्छ	-10.8376
▁असुरक्षित	-10.8381
▁अपनाउन	-10.8382
▁प्रतिकूल	-10.8385
▁घरका	-10.8385
▁निम्तो	-10.8387
▁गाईको	-10.8387
िस्ट	-10.8392
▁सक	-10.8395
▁कोसिस	-10.8396
▁घोडा	-10.8398
▁यसपालि	-10.8399
▁पब्लिक	-10.84
▁नियन्त्रणका	-10.8406
▁ब्यापार	-10.8411
▁उद्दार	-10.8413
▁दिदीबहिनी	-10.8413
▁ज्याला	-10.8414
▁विरुद्धको	-10.8414
▁दायरा	-10.8417
▁क्षेत्रफलमा	-10.8417
▁दृष्टिकोणले	-10.8417
▁सांसदले	-10.8419
▁स्त्री	-10.8419
▁लेखे	-10.8423
▁सुनेको	-10.8426
अप	-10.8426
▁पराजुलीले	-10.8429
▁अन्तर्गतको	-10.8429
▁प्रि	-10.8432
▁पिडित	-10.8436
▁तेह्रथुम	-10.8438
▁भ्रष्ट	-10.844
▁बैतडी	-10.8441
▁आउनुभएको	-10.8441
रले	-10.8444
▁मारमा	-10.8445
▁सङ्ख्यामा	-10.8446
▁प्रहरीमा	-10.8446
▁इन्चार्ज	-10.845
▁आफूहरुले	-10.8451
सार	-10.8454
पक्ष	-10.8457
▁कैलाश	-10.8458
▁कष्ट	-10.8459
▁विच	-10.8459
▁गुठी	-10.8459
▁सिन्धुली	-10.846
▁स्नातकोत्तर	-10.8463
▁गाउपालिका	-10.8463
▁कैलालीको	-10.8466
▁भन्नेबारे	-10.8467
▁भूकम्पपीडित	-10.8473
▁मामिलामा	-10.8475
केन्द्र	-10.8475
▁असम्भव	-10.8475
▁पचास	-10.8476
▁लाइ	-10.8477
▁सुधारको	-10.8484
▁स्थानको	-10.8492
▁उम्मेदवारको	-10.8492
▁अध्यागमन	-10.8495
▁काठमाडाैं	-10.8496
▁निजगढ	-10.8496
▁भूमिमा	-10.8497
▁परेन	-10.8499
बित्तिकै	-10.8499
▁हेलिकोप्टर	-10.85
ण्ट	-10.8501
▁गोदावरी	-10.8502
▁पाकिस्तानी	-10.8502
▁मुद्दाको	-10.8502
▁पिडा	-10.8504
▁बेस	-10.8506
▁प्लास्टिक	-10.8508
सामु	-10.8509
▁भण्डार	-10.8509
▁पूर्वराजा	-10.851
▁प्रकृतिका	-10.8513
▁अनी	-10.8517
▁बाँडफाँड	-10.8521
▁परिस्थितिमा	-10.8525
▁युरोपियन	-10.8528
▁लड्न	-10.8528
▁मारेको	-10.853
▁कमाई	-10.853
▁लगानीकर्ताले	-10.8533
▁गर्नुपरेको	-10.8533
▁सम्पति	-10.8534
▁धुन	-10.8535
▁अविरल	-10.8535
▁छाड्न	-10.8538
▁रकमको	-10.8541
▁प्राप्ति	-10.8542
बासी	-10.8543
▁रक्तदान	-10.8547
▁सिफारिश	-10.8552
▁दीपावली	-10.8553
ीका	-10.8556
▁विघटन	-10.8559
▁साँचो	-10.856
▁मौसममा	-10.8562
▁फारम	-10.8563
▁मोरङको	-10.8563
▁चिह्न	-10.8566
▁बन्दी	-10.8567
▁बनाइने	-10.8568
▁भइसकेपछि	-10.8569
▁चिकित्सकको	-10.8571
▁मेगा	-10.8572
▁हजारौँ	-10.858
▁०७४	-10.8583
शु	-10.8584
▁एफएम	-10.8586
▁बोक्ने	-10.8586
▁बेइजिङ	-10.8588
▁आफूसँग	-10.8588
▁पटकको	-10.8592
▁कमिसन	-10.8594
िको	-10.8596
▁कोषले	-10.8597
▁नरेश	-10.861
▁भूकम्पको	-10.8612
▁नपाएर	-10.8614
प्रदेश	-10.8618
▁नेपालीहरुले	-10.8619
▁घटनाक्रम	-10.8625
▁घट्ने	-10.8626
▁सपथ	-10.8628
दास	-10.8628
▁लालबाबु	-10.8631
▁पुग्नेछ	-10.8634
▁पाखा	-10.8635
▁रोजगारदाता	-10.8637
▁घरजग्गा	-10.8638
▁एकेडेमी	-10.8639
▁कसको	-10.8641
धान	-10.8643
बस	-10.8643
▁राख्नुपर्छ	-10.8643
▁दशमलब	-10.8644
▁जन्मेका	-10.865
मैत्री	-10.8655
▁टंक	-10.8656
बाँकी	-10.8659
▁खु	-10.8661
▁टेस्ट	-10.8662
ल्	-10.8663
▁भरोसा	-10.867
ानी	-10.8671
▁जायज	-10.8671
▁उल्लेखनीय	-10.8672
▁लभ	-10.8672
▁बिद्यार्थी	-10.8672
▁सोधे	-10.8672
▁२००९	-10.8673
▁मन्त्रालयलाई	-10.8673
▁दुर्लभ	-10.8676
▁अन्तर्वार्ता	-10.8677
▁उद्देश्यका	-10.8679
▁लिएपछि	-10.868
▁मुलुकभर	-10.8684
▁नआउने	-10.8685
लिया	-10.8687
▁गतेको	-10.8687
▁पुगेकी	-10.8688
▁शोक	-10.8693
▁निकासा	-10.8698
▁झैँ	-10.8699
िकरण	-10.8701
▁लहान	-10.8703
▁छोरालाई	-10.8706
▁खसी	-10.8711
निक	-10.8711
▁पैसाको	-10.8712
▁गाडीको	-10.8716
▁वर्षाका	-10.872
▁कार्यहरु	-10.8724
▁युवाको	-10.8724
▁राखिने	-10.8725
▁हटाएर	-10.8725
▁स्वास्थ्यका	-10.873
▁स्टोर	-10.8733
▁फर्केका	-10.8733
▁जागरण	-10.8736
▁पालो	-10.8738
▁म्याग्दीको	-10.8739
आमा	-10.874
▁अर्घाखाँची	-10.8742
शक्ति	-10.8744
त्यो	-10.8744
▁दूतावासले	-10.8744
▁अनुरूप	-10.8747
▁मस्तिष्क	-10.8749
▁महिलाहरुले	-10.8751
जर	-10.8752
▁त्यहा	-10.8755
▁दिइयो	-10.8756
▁नजिकको	-10.8759
र्ड	-10.876
विद्	-10.876
▁मुहान	-10.8762
▁शु	-10.8767
▁लामाको	-10.8768
▁पुनरावेदन	-10.8768
▁थाइल्याण्ड	-10.8769
▁एसिड	-10.877
▁संघीयताको	-10.8776
▁निद्रा	-10.8776
▁महत्वका	-10.8778
न्त	-10.8779
▁क्याम्पसमा	-10.8779
▁बनाइएका	-10.8779
▁यकिन	-10.8781
▁छोड्न	-10.8782
▁निलम्बन	-10.8782
▁बहुदलीय	-10.8788
▁हिट	-10.8789
▁प्रतिष्ठानले	-10.879
▁जंगलमा	-10.8791
▁सहन	-10.8791
▁रनमा	-10.8794
▁यसबाहेक	-10.8796
▁कहीँ	-10.8796
▁बोलपत्र	-10.8796
▁व्यवस्थालाई	-10.8798
▁पाईन्छ	-10.88
क्षेत्र	-10.8803
▁अभियोग	-10.8804
▁देवता	-10.8813
ì	-10.8814
▁केसीलाई	-10.8815
▁कार्यशैली	-10.8815
▁बुढाथोकी	-10.8816
न्द्र	-10.8822
▁अलिक	-10.8823
▁भाइरस	-10.8823
▁चोकमा	-10.8827
▁उपस्थितिमा	-10.883
▁पन्तले	-10.8833
▁चन्द्रमा	-10.8833
क्रम	-10.8834
▁उनीहरुका	-10.8836
▁रोज	-10.8836
▁बिदेश	-10.8839
व्य	-10.8841
▁गोठ	-10.8844
▁मुसा	-10.8848
▁हेटौँडा	-10.8849
▁असुल	-10.885
▁गोलले	-10.885
▁पेन्सन	-10.885
▁राधा	-10.8853
▁पाँचौ	-10.8857
▁चर्च	-10.8858
▁केरुङ	-10.8858
▁झरना	-10.8862
▁कीर्तिमान	-10.8864
ुल	-10.8868
▁देखिएपछि	-10.887
▁नवीकरण	-10.8874
▁डोजर	-10.8875
▁हैसियतमा	-10.8876
▁ओझेलमा	-10.8878
▁विपक्षमा	-10.888
▁नाता	-10.888
▁मनमोहन	-10.8882
▁इतिहासको	-10.8882
्मा	-10.8884
▁सयपत्री	-10.8894
▁धेरैलाई	-10.8899
▁शिक्षकले	-10.8903
ार्थ	-10.8904
थि	-10.8906
▁सोहि	-10.8907
▁अपराह्न	-10.8907
ष्	-10.8908
▁एउटी	-10.8908
यौं	-10.891
▁ग्रामिण	-10.8914
▁उड	-10.8924
७३	-10.8925
▁मीठो	-10.8934
▁»	-10.8936
▁असहज	-10.8939
▁सुख्खा	-10.894
▁उपत्यकाको	-10.8947
मर	-10.8947
▁सिभिल	-10.8947
▁गरिदिए	-10.8949
▁माझी	-10.895
▁सार्ने	-10.8951
▁अचेल	-10.8954
▁पदको	-10.8957
▁सभासद्	-10.8958
▁अनलाईन	-10.8967
▁आइपुगेका	-10.8968
भएको	-10.897
▁साकार	-10.8972
▁सकिए	-10.8972
आफ्ना	-10.8973
▁चौतारी	-10.8974
ीन	-10.8975
▁लापरबाही	-10.8976
▁पम्प	-10.8976
▁लघु	-10.8984
▁कसुर	-10.8985
ुपर्दछ	-10.8987
▁बाँदर	-10.8988
▁सूचीकृत	-10.8994
▁चित्रण	-10.8996
▁आदान	-10.8997
▁झाले	-10.8999
छैन	-10.9002
जीले	-10.9003
▁पढाउन	-10.9007
रत	-10.9008
▁अधिकारका	-10.9009
▁गर्नुपर्नेछ	-10.9015
▁जबरजस्ती	-10.9017
▁भित्र्याउन	-10.9021
▁प्याक	-10.9022
▁टीम	-10.9023
▁सडकखण्ड	-10.9026
▁राष्ट्रवादी	-10.9026
▁आत्मविश्वास	-10.9026
▁स्वतन्त्रताको	-10.9026
▁यद्यपी	-10.9028
▁जन्मेको	-10.9028
▁अप्ठेरो	-10.9035
▁सेनालाई	-10.9036
▁काण्ड	-10.9043
▁संस्थाहरु	-10.9045
▁सेन	-10.905
जंग	-10.9053
▁उपस्थिती	-10.9053
▁प्राण	-10.9054
▁सम्मिलित	-10.9055
▁योजनाको	-10.9056
▁डडेल्धुरा	-10.9056
▁भूमिगत	-10.9057
▁चीनबाट	-10.9058
▁अर्	-10.9064
▁दीप	-10.9065
चर	-10.9067
▁सूचक	-10.9068
▁न्यानो	-10.9068
▁इमेल	-10.9069
▁निज	-10.907
▁स्रष्टा	-10.907
▁सन्दिप	-10.9071
▁काठमाडौँको	-10.9078
▁फर्किए	-10.908
▁टाइम	-10.9081
▁सातौं	-10.9081
्वा	-10.9085
▁निस्कन	-10.9089
▁छाता	-10.9089
▁विश्वविद्यालयमा	-10.9092
▁दाम	-10.9096
▁उति	-10.9096
▁सुर्य	-10.91
▁क्षेत्रीले	-10.9106
▁प्रवर्द्धन	-10.9107
लगायतको	-10.9108
▁देशकै	-10.9109
▁सुनचाँदी	-10.9116
▁अनन्त	-10.9118
▁रुसी	-10.9119
▁बर्षिय	-10.9123
▁सौर्य	-10.9123
▁गतवर्ष	-10.9126
▁पार्वती	-10.9127
▁तिहाइ	-10.9128
▁कान्छी	-10.913
सेवा	-10.9131
▁पठनपाठन	-10.9133
▁तालिका	-10.9133
▁संगठनले	-10.9133
विपरीत	-10.9133
▁टप	-10.9136
▁लाखको	-10.9138
▁माई	-10.9139
्द	-10.9139
▁खत्रीले	-10.9139
िना	-10.9141
▁अस्ट्रेलिया	-10.9141
▁पृष्ठ	-10.9141
▁खेतमा	-10.9142
▁भीमदत्त	-10.9142
▁राउतले	-10.9142
▁पेरिस	-10.9142
▁२०६५	-10.9146
▁सम्झ	-10.9147
▁युवाले	-10.9148
▁विराटनगरमा	-10.9151
▁गाँजा	-10.9152
ियन	-10.9153
▁विवेकशील	-10.9159
▁बोर्डको	-10.9162
▁तोडफोड	-10.9164
▁विकट	-10.9167
▁अभिनन्दन	-10.9171
▁आएन	-10.9171
▁सेन्ट	-10.9173
▁पक्षका	-10.9175
▁सिम	-10.9177
▁प्रख्यात	-10.9178
▁प्रतिष्ठित	-10.9178
▁जातका	-10.9179
▁सहमती	-10.9181
▁ढाका	-10.9182
▁सबैजसो	-10.9185
▁सकिरहेको	-10.9185
▁हिंसात्मक	-10.9193
▁लाग्दै	-10.9194
▁पोखराका	-10.9194
▁फर्किन	-10.9195
▁उठाउँदै	-10.9197
▁मन्त्रीले	-10.9198
्का	-10.9199
शील	-10.92
▁निकालिएको	-10.92
▁समिती	-10.92
▁गच्छदार	-10.9202
▁भोज	-10.9202
▁च्याम्पियन्स	-10.9203
▁राजाले	-10.9205
▁देखाइएको	-10.9205
▁कम्पनीहरु	-10.9206
▁रेशम	-10.9206
▁ज्ञापनपत्र	-10.9207
▁बृहत	-10.9208
फरक	-10.9209
▁बच्चालाई	-10.9211
▁भेरी	-10.9214
▁लाइनमा	-10.9216
पहिले	-10.9218
▁त्यतिखेर	-10.9219
▁चलेका	-10.9222
▁उम्मेद्वार	-10.9223
▁उपमेयर	-10.9225
▁दक्षता	-10.9228
▁सर्भिस	-10.9228
▁सेनामा	-10.9228
▁पुत्र	-10.9233
▁लडाकु	-10.9234
▁बालकको	-10.9236
▁खासमा	-10.9238
्दो	-10.924
▁जमरा	-10.9248
▁वाक्य	-10.9248
▁प्राणी	-10.9249
▁¥	-10.9251
अगाडि	-10.9253
▁छाती	-10.9254
छा	-10.9255
▁दार्चुला	-10.9257
▁व्य	-10.9258
टन	-10.926
▁प्यानल	-10.9261
▁दशै	-10.9264
▁जसबाट	-10.9264
▁क्यापिटल	-10.9267
▁गोल्डकप	-10.9267
▁पाँचौं	-10.9267
▁गाउने	-10.9273
▁झलनाथ	-10.9274
▁असाध्यै	-10.9275
▁नगरप्रमुख	-10.9276
▁हातबाट	-10.9277
▁गुप्ता	-10.9278
▁स्टल	-10.9279
▁झ्याल	-10.9279
▁लगानीका	-10.9283
▁बैक	-10.9284
▁सक्नेछ	-10.929
▁बोर्डका	-10.9291
सभा	-10.9292
म्ब	-10.9292
▁मानिसमा	-10.9295
▁वर्षकी	-10.9295
▁प्रमोद	-10.9302
परराष्ट्रमन्त्री	-10.9306
▁एकछिन	-10.9307
▁व्यायाम	-10.9309
▁हावी	-10.931
▁साथीहरू	-10.9311
▁स्तन	-10.932
▁कर्मचारीहरु	-10.9321
▁भूकम्पबाट	-10.9322
▁वैदिक	-10.9323
▁अनुपातमा	-10.9328
▁युरो	-10.9328
▁पश्चिमा	-10.9329
▁महाभारत	-10.9329
▁मृगौला	-10.933
▁शिक्षित	-10.933
धा	-10.9331
चो	-10.9334
▁दर्जनौं	-10.9335
▁पश्चिममा	-10.9338
▁उन्नति	-10.9344
▁पुग्दैन	-10.9348
▁हामीकहाँ	-10.9349
सरह	-10.935
▁सृष्टि	-10.935
▁टाइम्स	-10.935
▁लागुऔषध	-10.9351
कार्य	-10.9351
▁वास्ता	-10.9351
▁अधिकारकर्मी	-10.9354
▁संजाल	-10.9358
▁सुटिङ	-10.9359
▁व्यवस्थामा	-10.9362
▁राणाले	-10.9363
▁२००६	-10.9363
▁त्योभन्दा	-10.9364
▁धर्ना	-10.9365
▁पाहुना	-10.9367
▁छोड	-10.9369
▁बुझाएका	-10.9369
▁गरिँदै	-10.937
▁ग्रेड	-10.937
▁श्रद्धा	-10.9371
▁जातको	-10.9372
▁हाजिर	-10.9378
▁मंगलवार	-10.9379
▁अदालतबाट	-10.9381
▁राजिनामा	-10.9385
▁युथ	-10.939
▁कामदारलाई	-10.939
▁बिपी	-10.9391
▁जुटेको	-10.9394
▁सर्त	-10.9396
▁पुनरावलोकन	-10.9399
▁मधेशमा	-10.9401
▁एकसाथ	-10.9401
▁यहा	-10.9403
▁धक्का	-10.9407
▁गदै	-10.9408
▁स्वायत्त	-10.9408
▁दुवैको	-10.941
▁पुग्छन्	-10.9413
▁खगेन्द्र	-10.9414
▁नानी	-10.9414
▁चाइना	-10.9414
▁फोनमा	-10.9416
▁बुझाई	-10.9419
▁निश्चय	-10.942
▁अलावा	-10.942
▁प्रशासक	-10.9421
▁यदी	-10.9421
्दछ	-10.9422
▁तोक्ने	-10.9423
्दैन	-10.943
फि	-10.9431
▁विहार	-10.9441
▁साउथ	-10.9443
▁नेत्र	-10.9443
▁स्टेट	-10.9444
▁लिंग	-10.9445
▁महतले	-10.9445
▁बझाङ	-10.9446
▁ब्यवस्थापन	-10.9446
▁बिष्णु	-10.9449
▁आसपास	-10.9449
▁यसर्थ	-10.9449
▁मिसन	-10.9451
▁रोगबाट	-10.9454
▁बढाउँदै	-10.9454
▁हुनेगरी	-10.9457
२३	-10.9464
▁चिनिने	-10.9465
ैं	-10.9467
▁देखिन्थ्यो	-10.9467
▁मेडल	-10.9467
▁दुबई	-10.9469
▁जुटेका	-10.947
▁छेउ	-10.9471
दल	-10.9472
्यु	-10.9475
▁कोटा	-10.9476
▁एड	-10.9476
▁ठकुरी	-10.9476
▁खुवाउने	-10.9476
लाइन	-10.9477
६०	-10.9477
हुने	-10.9481
▁प्रार्थना	-10.9484
▁पहिलेदेखि	-10.9485
▁छाएको	-10.9487
▁भर्ने	-10.9487
▁लेक	-10.9489
▁रोपाइँ	-10.9498
▁चिर	-10.9502
▁पारवहन	-10.9505
▁हाई	-10.9506
▁संरक्षणका	-10.9507
▁कारोबारमा	-10.951
▁सिधा	-10.9512
त्ति	-10.9512
▁अग्नि	-10.9513
▁नेशनल	-10.9521
स्वरुप	-10.9521
▁गोकर्ण	-10.9523
▁उपभोग्य	-10.9523
▁बैंकिङ्ग	-10.9527
▁सुत्ने	-10.9529
▁बृहत्	-10.953
▁प्रयोगशाला	-10.9532
▁शेख	-10.9534
▁गतिलो	-10.9535
▁पक्षधर	-10.9539
▁विद्यालयलाई	-10.9544
स्क	-10.9546
िट	-10.9546
▁नापी	-10.9547
▁साक्षी	-10.9548
▁बसमा	-10.9554
▁प्रतियोगिताका	-10.9555
▁आणविक	-10.9555
▁यूके	-10.9557
्नुपर्ने	-10.9558
▁स्कुटर	-10.9562
बद्ध	-10.9562
▁लगाउँदा	-10.9563
▁कट	-10.9564
▁भेलाले	-10.9565
▁स्थानान्तरण	-10.9569
▁घटाउने	-10.9572
▁सर्वसाधारणले	-10.9572
▁खाए	-10.9574
▁बालबालिकाहरु	-10.9575
▁भे	-10.9575
▁समस्याहरु	-10.9576
▁फुर्सद	-10.9578
▁सतह	-10.9578
▁तिनीहरूले	-10.958
▁बोलेको	-10.958
▁सिप	-10.9581
▁हितका	-10.9583
▁चलचित्रका	-10.9584
▁शिलान्यास	-10.9584
▁नवलपरासीको	-10.9589
▁सिक्ने	-10.9589
मार्ग	-10.9589
▁देशबाट	-10.9593
▁चुस्त	-10.9595
▁महानगरपालिकाको	-10.9596
▁नदिई	-10.9599
▁बर्षा	-10.96
▁भोग	-10.9602
▁‘‘	-10.9603
▁अनुमतिपत्र	-10.9609
▁फिचर	-10.9611
▁बढाएका	-10.9615
▁आतंक	-10.9615
▁भित्रिएको	-10.9616
▁परिषद्को	-10.9619
सम	-10.962
▁संरक्षक	-10.9624
▁दरमा	-10.9626
▁म्यूजिक	-10.9626
▁माहोल	-10.9627
ष्ठ	-10.9628
▁लिगमा	-10.963
▁लास	-10.9631
▁महाकवि	-10.9634
▁प्रेमको	-10.9636
▁आफैमा	-10.9637
▁रिक्त	-10.9639
▁हुनुपर्दछ	-10.9642
पट्टि	-10.9647
▁फ्यान	-10.9647
▁वकालत	-10.9648
▁किनबेच	-10.9648
▁सम्मका	-10.9649
पर्ने	-10.9649
एच	-10.9649
्यू	-10.965
ाना	-10.9652
ाइरहेका	-10.9654
▁प्रदिप	-10.9656
▁थप्ने	-10.9656
▁समयअघि	-10.9658
▁दीपेन्द्र	-10.9662
▁लिइन्छ	-10.9662
▁मिथिला	-10.9663
▁भक्त	-10.9666
कुनै	-10.9667
▁सभ्य	-10.9667
▁स्मारक	-10.9669
▁मर्ने	-10.967
▁प्लेट	-10.967
▁पाकिस्तानको	-10.9671
▁एकताका	-10.9673
▁धारण	-10.9677
▁ब्राह्मण	-10.9677
तन्त्र	-10.9677
▁उहा	-10.968
तु	-10.968
▁दिमाग	-10.9685
▁व्यवस्थापक	-10.9686
▁राज्यलाई	-10.9691
▁व्यापारमा	-10.9691
▁सुत	-10.9691
▁ग्रह	-10.9691
▁सिनियर	-10.9691
▁सारिएको	-10.9693
▁दिल्लीमा	-10.9693
▁साथीभाइ	-10.9697
▁त्रुटि	-10.9697
▁नेतृ	-10.9699
▁काग्रेस	-10.97
▁बिक	-10.9701
▁असारमा	-10.9703
तः	-10.9705
▁होटेल	-10.9705
▁आर्ट	-10.9705
▁वंश	-10.9706
▁अहिलेका	-10.9711
▁ऐ	-10.9712
▁संचालित	-10.9713
यी	-10.9714
▁व्यवस्थाको	-10.9715
▁धान्न	-10.9719
▁घरघरमा	-10.972
▁तिवारी	-10.9722
खे	-10.9724
▁गिरिजाप्रसाद	-10.9728
▁सम्झनामा	-10.9729
▁लिङ्ग	-10.9729
▁बिर्तामोड	-10.973
▁उपाध्यायले	-10.9733
▁बिचमा	-10.9733
▁बहिष्कार	-10.9734
▁काफ्ले	-10.9736
▁खेलकूद	-10.9742
▁जनरल	-10.9743
▁पर्यटनको	-10.9747
▁पूर्णरुपमा	-10.9757
▁प्रकारले	-10.9758
▁साहस	-10.9759
▁अरूलाई	-10.9765
▁घडी	-10.9766
▁आजका	-10.9767
▁असुली	-10.9776
▁म्यानेजर	-10.9778
▁बैदेशिक	-10.9778
▁स्नान	-10.9778
▁दुवैले	-10.978
▁गिरफ्तार	-10.9781
▁सङ्कट	-10.9781
▁वल्र्ड	-10.9786
▁प्रतिनिधिमण्डल	-10.9786
▁बसी	-10.9791
▁कम्पनीहरू	-10.9795
दैन	-10.9797
▁इटाली	-10.9797
्छौं	-10.9804
▁नगर्नु	-10.9809
▁उपलब्धी	-10.9811
६३	-10.9815
▁गरिनुपर्छ	-10.9817
▁माधवकुमार	-10.9818
▁पुगिसकेको	-10.9819
▁निर	-10.9819
▁भजन	-10.9819
▁सम्बन्धको	-10.9821
▁राजकीय	-10.9822
▁विच्छेद	-10.9822
▁इमान्दार	-10.9823
▁भ्रष्टाचारको	-10.9825
▁स्थापनाको	-10.9825
▁आंशिक	-10.9829
▁कृत्रिम	-10.9829
▁शेर	-10.983
भक्त	-10.9832
▁भानु	-10.9832
▁कार्यकालमा	-10.9832
धारा	-10.9833
▁प्रणालीलाई	-10.9836
▁दाउरा	-10.9837
▁लाखौँ	-10.9838
▁उदाहरणका	-10.9838
▁गर्दछौं	-10.9841
▁न्युयोर्क	-10.9841
्याउन	-10.9841
▁एच	-10.9842
▁शक्तिले	-10.9844
जल	-10.9847
▁कथित	-10.9852
▁सबैका	-10.9852
▁लिनुपर्छ	-10.9856
▁एजेन्ट	-10.9857
▁तस्कर	-10.9858
▁सङ्क्रमण	-10.9859
▁प्रत्याभूति	-10.986
▁टिमलाई	-10.9864
▁बुझिन्छ	-10.9866
▁चुप	-10.9866
२१	-10.9868
नौ	-10.9868
▁अरुले	-10.9869
▁अभावले	-10.9872
▁दिइन्छ	-10.9873
००	-10.9873
▁किमि	-10.9873
▁प्रजिअ	-10.9873
▁बुटवलमा	-10.9874
▁भिडियोलाई	-10.9878
▁तामाङको	-10.9878
▁उमा	-10.9879
▁आश्रम	-10.9879
▁विराट	-10.988
▁कान्छा	-10.9881
▁मेक्सिको	-10.9882
▁अध्ययनमा	-10.9883
▁कांग्रेसलाई	-10.9888
▁व्यवहारिक	-10.9888
▁मतलब	-10.9889
ियर	-10.9889
▁परेकी	-10.989
▁प्रालिले	-10.9898
▁कार्यभार	-10.9898
▁आठौं	-10.9898
द्द	-10.9898
▁यज्ञ	-10.99
▁एयरलाइन्स	-10.9901
▁नपाउँदा	-10.9903
▁जरा	-10.9905
ेकी	-10.9905
▁केटाकेटी	-10.9906
▁स्टेशन	-10.9907
▁सदैव	-10.991
▁रसुवागढी	-10.9911
▁भेलामा	-10.9913
▁भाषिक	-10.9913
▁बुझ्नु	-10.9914
▁संरचनाको	-10.9915
▁गीतलाई	-10.9917
▁प्रताप	-10.992
▁समुद्र	-10.9921
▁विभागीय	-10.9924
▁लडाइँ	-10.9924
२२	-10.9926
▁हेरिएको	-10.9927
▁साक्षरता	-10.9929
▁बर्सेनि	-10.9933
▁काली	-10.9933
▁महर्जनले	-10.9936
▁नेताहरुलाई	-10.9936
▁कास्कीका	-10.9936
▁पोशाक	-10.9937
▁लाभग्राही	-10.994
▁जतिसुकै	-10.994
▁विकेटले	-10.9943
▁बाह्र	-10.9944
▁गर्छिन्	-10.9945
▁उतै	-10.9948
संस्था	-10.9951
▁शाखाको	-10.9954
▁आकांक्षा	-10.9955
▁पत्रकारहरु	-10.9955
▁आन्दोलनकारी	-10.996
अनुरुप	-10.9963
▁तीनजना	-10.9969
▁चेली	-10.9975
▁आवतजावत	-10.9976
▁हुनुपर्नेमा	-10.9978
▁मानिसहरुको	-10.9978
▁व्यक्तिहरू	-10.9981
▁ठेगाना	-10.9982
कुल	-10.9984
▁कैयौँ	-10.9985
▁सांसदहरुले	-10.9986
▁पार्नु	-10.9987
▁फेर्न	-10.9989
▁जनसम्पर्क	-10.9992
▁खतरनाक	-10.9992
▁संस्करणको	-10.9992
▁परिश्रम	-10.9993
▁आधुनिकीकरण	-10.9994
▁नोक्सानी	-10.9995
रिक	-10.9997
',	-10.9997
▁फ्रान्सले	-11
ल्स	-11
▁भएछ	-11.0002
▁रचनात्मक	-11.0007
▁देउ	-11.0014
▁गराउँछ	-11.0016
▁अन्तमा	-11.0017
▁तिथि	-11.0019
▁नामाकरण	-11.0021
▁कार्यक्रमले	-11.0022
▁सूत्र	-11.0022
▁संघसंस्था	-11.0022
▁यन्त्र	-11.0024
▁पर्वतको	-11.0025
्नुपर्छ	-11.0026
▁दीपिका	-11.0029
▁रङ्ग	-11.003
▁चे	-11.0032
▁मूल्यवृद्धि	-11.0037
▁गोकुल	-11.0038
▁दशकदेखि	-11.004
▁महरा	-11.0042
▁अराजकता	-11.0047
▁बापत	-11.0053
▁शास्त्रीय	-11.0055
म्बा	-11.0055
▁साइत	-11.0056
▁सप्तरीको	-11.0057
▁गएकी	-11.0063
▁शाखाले	-11.0066
क्र	-11.0066
▁भित्रिने	-11.0068
▁हिरा	-11.0069
▁छात्र	-11.0071
▁वर	-11.0074
▁प्रश्नमा	-11.0075
▁लड	-11.0075
▁हेरे	-11.0079
▁कार्यक्षेत्र	-11.008
▁होमस्टे	-11.0081
स्थान	-11.0086
▁रहेकोछ	-11.0087
▁मसान्तसम्म	-11.0087
▁रातको	-11.0093
▁इँग्ल्याण्ड	-11.0093
▁पाउँदैन	-11.0094
▁शिक्षाका	-11.0096
ुहोला	-11.0096
▁क्यामरा	-11.0097
▁बनेकी	-11.0099
▁सुनिश्चितता	-11.01
▁संगठनका	-11.01
▁संस्थापन	-11.0103
▁भेग	-11.0105
▁सुर	-11.0105
▁बासिन्दाले	-11.0105
▁आँधी	-11.0106
▁यत्ति	-11.0107
▁अघिदेखि	-11.0107
▁दाई	-11.0108
▁परमेश्वर	-11.0108
▁सुनिता	-11.0115
▁दृढ	-11.0117
▁एकजुट	-11.0119
ाउँथे	-11.0119
▁वाट	-11.012
पुल	-11.0122
▁अपाङ्गता	-11.0123
▁फु	-11.0126
ुक	-11.0127
▁आसन्न	-11.0127
▁क्षतिग्रस्त	-11.0127
▁मार्गमा	-11.0128
▁नपाएका	-11.0129
▁पर्	-11.013
▁बनिसकेको	-11.0132
▁मान्छेहरु	-11.0132
▁महाप्रबन्धक	-11.0134
▁एकपछि	-11.0134
धी	-11.0134
▁चौधरीको	-11.0135
▁संखुवासभा	-11.0141
▁परीक्षाको	-11.0142
▁लुट	-11.0149
▁लाग्दो	-11.0149
▁बिदेशी	-11.015
▁डरले	-11.0151
▁डेभलपमेन्ट	-11.0156
▁श्रावण	-11.0157
▁पाएनन्	-11.0162
▁त्रैमास	-11.0163
▁पूर्वाञ्चल	-11.0165
▁गि	-11.0169
▁श्रोता	-11.0171
▁अनमोल	-11.0172
▁पठाए	-11.0173
▁कलेजो	-11.0174
▁जनवादी	-11.0174
▁अभावका	-11.0176
▁थिई	-11.0177
▁लाभान्वित	-11.0179
▁कुश्मा	-11.0179
राष्ट्रिय	-11.0181
▁बहुमतको	-11.0185
▁परिक्षा	-11.0187
▁बाजुरा	-11.0187
▁सस्था	-11.0188
▁सुरक्षामा	-11.0188
▁हुँदो	-11.0189
ल्ड	-11.0193
▁सम्वन्ध	-11.0195
▁पढ्नुहोस	-11.0206
▁प्रतिद्वन्द्वी	-11.021
▁वर्षेनी	-11.0213
▁वैधानिक	-11.0217
▁पालिका	-11.0217
▁इज्जत	-11.0217
आफ्नै	-11.0217
त्य	-11.0221
घरमा	-11.0221
रुप	-11.0221
स्तरीय	-11.0222
▁दोषीलाई	-11.0222
▁सोझै	-11.0225
▁चो	-11.0226
▁अमेरिकन	-11.0227
▁सरिता	-11.0227
▁समस्याबाट	-11.0229
ञ्ज	-11.0231
्ले	-11.0233
▁चियापान	-11.0235
▁डाक्टरले	-11.0236
▁गेम	-11.0237
▁चौतर्फी	-11.024
▁उद्धृत	-11.024
▁नभइ	-11.0241
▁कलेजको	-11.0242
सुन	-11.0243
▁ब्य	-11.0245
▁पवन	-11.0245
▁स्या	-11.025
▁गोलको	-11.0251
▁दशैंको	-11.0256
▁जमात	-11.0256
पार्टी	-11.0258
▁सिंहको	-11.0262
▁खुकुरी	-11.0263
▁फिल्मका	-11.0265
▁वडाका	-11.0265
▁महानगरपालिकाका	-11.0265
▁म्यानमार	-11.0266
▁सजग	-11.0267
ेन्स	-11.0268
▁च्याउ	-11.027
षा	-11.0273
▁पढेको	-11.0276
▁राशी	-11.0279
भूमि	-11.0279
▁उदार	-11.028
प्रेमी	-11.028
▁लम्साल	-11.0285
▁मेसी	-11.0285
▁महंगो	-11.0286
▁मिलाइएको	-11.0286
▁कोर्स	-11.0288
▁दम	-11.0295
▁१९९०	-11.0295
▁निर्मल	-11.03
▁उहाँहरुले	-11.0301
▁मधेशको	-11.0302
▁सुनुवार	-11.0302
▁ग्याँस	-11.0303
विरोधी	-11.0306
▁मिडियाले	-11.0307
▁प्रतिशतको	-11.031
▁संकटमा	-11.031
▁हप्तामा	-11.0311
▁थाइल्यान्ड	-11.0311
▁प्रतियोगीता	-11.0313
▁समस्याका	-11.0315
▁दाल	-11.0315
▁गहुँ	-11.0315
▁संयोग	-11.0316
▁एक्कासी	-11.0317
▁बगाएको	-11.0318
▁लेखकले	-11.0322
▁युद्धमा	-11.0323
▁लायन्स	-11.0325
चित	-11.0325
▁आक्रोशित	-11.0327
▁त्यसतर्फ	-11.0328
▁परीक्षणका	-11.0329
▁गरिनुपर्ने	-11.0329
▁धन्दा	-11.0332
▁प्रोत्साहित	-11.034
▁ली	-11.0343
▁काठमाण्डौं	-11.0343
▁दुनियाँ	-11.0343
▁ब्राण्ड	-11.0344
▁बालिकाको	-11.0348
द्र	-11.0349
ंक	-11.035
▁चाहियो	-11.0351
▁डु	-11.0353
▁रोहित	-11.0353
▁साम	-11.0354
शुल्क	-11.0355
▁धुलिखेल	-11.0355
▁भविष्यको	-11.0361
▁चुनौतीपूर्ण	-11.0362
काल	-11.0363
▁दिन्छु	-11.0364
▁एप्स	-11.0367
▁घट	-11.0367
▁बडा	-11.0371
▁बढाउँछ	-11.0374
सरकारले	-11.0376
▁रविन्द्र	-11.0376
कालमा	-11.0377
▁जताततै	-11.0378
▁भरी	-11.0378
भित्रका	-11.0379
▁सङ्ग्रह	-11.038
▁हिजोआज	-11.038
▁सङ्घका	-11.038
▁टिपर	-11.0383
▁यसपछि	-11.0383
▁मातहत	-11.0384
▁बाहिरिएको	-11.0385
▁कलाकारहरुको	-11.0392
म्प	-11.0394
▁कुँवर	-11.0397
▁गुमाएर	-11.0399
▁व्यापारीले	-11.0401
▁आक्रामक	-11.0402
वर्ग	-11.0403
ंगा	-11.0407
▁कार्यकर्ताको	-11.0407
▁पर्यटकहरु	-11.0409
▁परिक्रमा	-11.0409
▁सोसाइटी	-11.0414
▁युट्युब	-11.0414
▁आफैंमा	-11.0414
▁विस्तृतमा	-11.0415
▁सर्प	-11.0415
▁कोषका	-11.0415
▁गाविसका	-11.0416
मल	-11.0416
▁गिरावट	-11.0417
▁सचिवमा	-11.042
▁मनाइन्छ	-11.0421
▁रुद्र	-11.0421
▁बाग्लुङ	-11.0421
▁उपभोक्ताले	-11.0425
▁भन्छन	-11.0432
▁समातेर	-11.0436
्व	-11.0436
▁मृत्युको	-11.0436
▁नारायणी	-11.0442
धेरै	-11.0443
▁आन्दोलनले	-11.0444
▁बजेको	-11.0447
▁सर्वप्रथम	-11.0448
▁ब्या	-11.0451
समा	-11.0451
▁डरलाग्दो	-11.0456
▁उखान	-11.0461
▁हेर्नु	-11.0461
▁न्यायपालिका	-11.0462
▁काला	-11.0463
▁चार्ज	-11.0465
▁जाहेरी	-11.0467
▁प्रचण्डलाई	-11.0468
▁महिलाका	-11.0469
▁देवकोटाले	-11.0471
▁अलैँची	-11.0471
▁सतर्कता	-11.0472
▁उपसभापति	-11.0474
▁वताए	-11.0475
▁छँदै	-11.0478
▁दुव्र्यवहार	-11.0479
▁आराधना	-11.048
▁भावनात्मक	-11.048
▁निर्णयमा	-11.0483
▁फर्किएको	-11.0483
▁साधना	-11.0486
ाङ्ग	-11.049
▁उभिएर	-11.0492
▁धानको	-11.0492
विन	-11.0493
▁विज्ञहरू	-11.0494
▁लागूऔषध	-11.0498
▁भित्रका	-11.0499
पाँच	-11.0501
▁गरिसकेपछि	-11.0502
▁हाइड्रो	-11.0502
▁भन्नाले	-11.0504
▁सोच्ने	-11.0505
▁टिममा	-11.0506
क्त	-11.0506
▁गुम्बा	-11.0507
श्	-11.051
▁मर्न	-11.0516
▁जयन्ती	-11.0519
▁अरूको	-11.0519
▁समाजिक	-11.0521
▁महिने	-11.0541
▁महाधिवेशनमा	-11.0542
▁चल्यो	-11.0543
▁गान्धी	-11.0544
▁अधिकारीहरू	-11.0544
▁कानुनले	-11.0544
▁पुस्तकको	-11.0545
▁औषधिको	-11.0548
▁रोगका	-11.0549
▁टिमका	-11.055
▁सत	-11.055
▁व्याप्त	-11.055
▁बसाइ	-11.0551
▁आउनेछ	-11.0553
▁मतदाताले	-11.0556
▁उनिहरु	-11.0562
ांै	-11.0563
▁गराउँदा	-11.0567
▁चलाएर	-11.0567
▁तस्विर	-11.057
वीच	-11.0571
▁दही	-11.0572
▁अली	-11.0573
▁बुझिएको	-11.0575
▁मेरै	-11.0578
▁हाँसो	-11.0578
▁समस्याले	-11.0578
▁कार्यपत्र	-11.0579
▁उत्तरदायित्व	-11.0581
▁उन	-11.0581
लिङ	-11.0582
▁यिनको	-11.0583
▁प्रतिव्यक्ति	-11.0584
▁करण	-11.0587
▁साग	-11.0587
▁नितान्त	-11.0589
▁अनेकौं	-11.0595
▁उहाँहरु	-11.0596
▁गरिमा	-11.0597
▁उठेका	-11.0602
▁स्वास्थ	-11.0603
▁चल्छ	-11.0603
▁गौरी	-11.0604
▁सदस्यका	-11.0604
▁ग्यारेन्टी	-11.0605
▁वायुसेवा	-11.0605
हाङ	-11.0611
▁लाग	-11.0612
▁सोसल	-11.0612
▁विचारमा	-11.0613
▁मानिसहरुले	-11.0617
▁गल्कोट	-11.0621
▁लेखिएका	-11.0622
▁दाता	-11.0623
▁पृष्ठभूमि	-11.0623
▁फिल्मले	-11.0624
▁एक्लो	-11.0628
▁जुस	-11.0629
▁इकाई	-11.0629
▁भी	-11.0631
▁काँधमा	-11.0632
▁सुनाएको	-11.0635
▁असफलता	-11.0635
▁घनश्याम	-11.0637
▁ठाडो	-11.0637
▁निवर्तमान	-11.0637
▁कालमा	-11.0637
▁भद्र	-11.0642
▁उपाधी	-11.0645
▁सहजता	-11.0646
▁तालिममा	-11.065
▁प्रतिनिधी	-11.0653
▁अतिथी	-11.0654
पू	-11.0657
▁छँदा	-11.0657
▁कमिटीको	-11.0658
▁ग्रन्थ	-11.0658
▁डेरा	-11.066
▁परिपाटी	-11.0661
▁बढ्दा	-11.0662
▁हालत	-11.0662
▁खोल	-11.0666
▁बर्ग	-11.067
▁सोलार	-11.0672
▁कपिल	-11.0674
▁प्रतिस्थापन	-11.0675
▁ग्राहकलाई	-11.0675
▁तरुण	-11.0676
▁निर्मलाको	-11.0677
▁लोकसेवा	-11.0677
▁न्यूयोर्क	-11.0681
▁सदनमा	-11.0685
▁घण्टाको	-11.0685
▁भएनन्	-11.0686
▁कार्यालयलाई	-11.0687
▁वर्ण	-11.0691
▁सबैतिर	-11.0692
▁बितिसक्दा	-11.0692
▁क्रिया	-11.0694
▁संघिय	-11.0694
▁बडो	-11.0697
▁समसामयिक	-11.07
▁व्यक्तिहरुको	-11.07
▁माइक्रो	-11.0701
▁कार्यवाहक	-11.0702
▁मार्केट	-11.0703
▁बिन्दु	-11.0704
▁ग्राहकको	-11.0707
▁सै	-11.0708
▁बिजेता	-11.0708
▁सँधै	-11.0708
▁बन्दा	-11.0709
▁जान्ने	-11.0709
▁विस्तारका	-11.0711
▁हिसावले	-11.0711
रमा	-11.0712
▁नजिकबाट	-11.0713
▁वक्तव्य	-11.0713
▁यात्रुहरु	-11.0715
▁कराते	-11.0716
▁संगीतमा	-11.0719
▁वर्गीकरण	-11.0719
२४	-11.072
▁अष्ट्रेलियामा	-11.0722
▁ब्रान्ड	-11.0722
▁शारदा	-11.0723
▁ब्युरो	-11.0724
▁बरालले	-11.0727
▁सुन्दरी	-11.0729
▁पितृ	-11.073
▁यिनले	-11.073
▁४००	-11.0732
▁शंकास्पद	-11.0732
▁गराइ	-11.0735
▁सत्तापक्ष	-11.0735
▁सिके	-11.0735
▁प्रजनन	-11.0735
▁दया	-11.0737
सके	-11.0737
▁अन्तत	-11.0737
▁अस	-11.074
्म	-11.0741
▁हेम	-11.0741
▁रावल	-11.0741
▁कयौं	-11.0743
िन्थ्यो	-11.0743
▁करिडोर	-11.0744
ताल	-11.0744
▁सिरिया	-11.0745
▁जीवनलाई	-11.0745
२७	-11.0747
▁शरीरका	-11.0748
▁त्रिवेणी	-11.0749
▁मंगल	-11.0749
▁आशावादी	-11.0754
▁ज्यू	-11.0755
▁ममता	-11.0756
▁पौने	-11.0757
भाइ	-11.0761
लोक	-11.0763
▁ब्याक	-11.0764
▁जनमुक्ति	-11.0765
▁वृत्त	-11.0766
▁चक्रपथ	-11.077
▁आँप	-11.0777
▁रियाल	-11.0783
भने	-11.0787
▁पेटमा	-11.0788
कुरा	-11.0788
▁समिक्षा	-11.0789
▁खेले	-11.079
▁सिलवाल	-11.0794
▁शुरुमा	-11.0796
▁लोग्ने	-11.0797
▁व्यक्तिका	-11.0797
▁घरभित्र	-11.0797
▁ठान्ने	-11.08
३५	-11.08
ैपर्ने	-11.0801
▁कालिकोट	-11.0803
▁अर्व	-11.0803
२६	-11.0804
▁अधिकृतको	-11.0804
▁माननीय	-11.0805
▁भोग्नु	-11.0805
▁भान	-11.0806
▁बैंकहरुले	-11.0807
्याई	-11.0808
▁अर्कातिर	-11.0809
▁इन्जिन	-11.0809
▁बनिरहेको	-11.0811
▁बग्ने	-11.0811
▁आँखाको	-11.0811
▁सहकारीको	-11.0812
▁भिम	-11.0814
▁कागती	-11.0816
▁तो	-11.0816
▁मुख्यालय	-11.0816
▁राजनीतिलाई	-11.0818
▁समूहलाई	-11.0819
▁विषयक	-11.082
▁घरायसी	-11.0821
खेल	-11.0824
▁धामी	-11.0826
▁स्कोर	-11.0826
▁धितो	-11.0827
▁सदस्यलाई	-11.0829
▁प्रक्षेपण	-11.0829
भे	-11.0835
▁माल	-11.0843
▁जनसंख्याको	-11.0845
▁सुबिधा	-11.0845
▁अनुसन्धानको	-11.0848
बन	-11.085
महा	-11.0851
▁पूर्ति	-11.0854
▁पुर	-11.0857
▁कडाइ	-11.086
▁देशहरु	-11.0869
▁पूजाआजा	-11.0869
▁अर्ध	-11.087
▁रामायण	-11.087
▁२०४८	-11.0871
▁खण्डको	-11.0876
▁मसला	-11.0878
▁प्रतिशतमा	-11.0882
▁आयोगलाई	-11.0883
▁स्तरका	-11.0884
▁भरि	-11.0885
▁क्यालिफोर्निया	-11.0886
▁गीतले	-11.0888
▁टोकियो	-11.0893
▁दिउसो	-11.0894
▁खर्चको	-11.0894
▁कर्मचारीतन्त्र	-11.0897
▁प्रसङ्ग	-11.0901
▁हेल्थ	-11.0902
▁मलेसियाको	-11.0904
▁सामग्रीको	-11.0911
▁जनाउने	-11.0911
▁डिसी	-11.0911
▁बलिदान	-11.0912
▁पकाउने	-11.0914
▁घातक	-11.0915
▁सर्जक	-11.0915
▁गोर्खाली	-11.0917
िरहने	-11.0918
▁गौशाला	-11.0918
▁अल्पसंख्यक	-11.0918
▁यात्री	-11.0918
▁सेटमा	-11.092
▁आस	-11.092
▁पहाडमा	-11.0924
▁र्याली	-11.0925
▁जापानले	-11.0926
▁मातहतका	-11.0927
▁घटनाबारे	-11.0936
▁पिउन	-11.0937
▁परियोजनाको	-11.0938
ाक	-11.0939
▁भिजन	-11.0942
▁बताईएको	-11.0943
▁सयौँ	-11.0943
लमा	-11.0944
▁यादवलाई	-11.0945
▁ठाँउमा	-11.0949
▁मुलुकबाट	-11.0949
▁सान्दर्भिक	-11.0951
▁सू	-11.0954
▁सीमामा	-11.0955
योग	-11.0963
▁संविधानसभामा	-11.0963
▁भक्तजन	-11.0963
▁अङ्ग्रेजी	-11.0966
▁सिकाउने	-11.097
▁विमानस्थलबाट	-11.0974
गरि	-11.0975
▁कोटेश्वर	-11.0976
▁रोनाल्डोले	-11.0977
▁स्थानीयवासीले	-11.0977
ेन्ट	-11.0983
▁एसोसिएसन	-11.0984
▁अपेक्षित	-11.0984
▁धमला	-11.0985
▁सम्झौताको	-11.0985
▁दा	-11.0987
▁राख्छन्	-11.0988
▁निर्देशनालय	-11.099
▁ट्राभल	-11.0994
▁बंगाल	-11.0996
▁सोध्न	-11.0997
▁घेरा	-11.1
णी	-11.1001
▁२०६७	-11.1011
▁सन्तुष्टि	-11.1011
▁टाउकोमा	-11.1015
▁औजार	-11.1017
▁चिल्लो	-11.1017
▁एसियन	-11.1018
▁आफन्तले	-11.1019
▁भैरव	-11.1024
▁चल्दै	-11.1025
ुस	-11.1027
▁गर्दथे	-11.103
▁सभाले	-11.103
▁उहाले	-11.1032
▁बिजयी	-11.1034
▁रुची	-11.1035
▁कुवेत	-11.1036
▁गरिन्थ्यो	-11.1037
▁शोभा	-11.104
▁निरुत्साहित	-11.1041
▁नाताले	-11.1042
▁मैत्रीपूर्ण	-11.1043
▁घुम	-11.1043
▁मूलतः	-11.1043
▁दी	-11.1044
ाइरहेको	-11.1046
▁छाडेका	-11.1048
्ल	-11.1049
▁चेत	-11.1049
▁पाठेघर	-11.105
▁विन्दु	-11.1054
▁बसिरहेका	-11.1057
▁आव्हान	-11.1058
▁कार्वाही	-11.1058
४५	-11.1063
गे	-11.1064
▁गरिरहेकी	-11.1064
▁किनारा	-11.1065
▁उत्थान	-11.1065
▁सोधपुछ	-11.1066
▁बाइक	-11.1067
▁प्लान्ट	-11.1068
▁देशभित्र	-11.1068
▁सर्ट	-11.1069
▁जुम्लामा	-11.107
▁उपप्रधान	-11.1074
▁बस्छन्	-11.1076
स्थानीय	-11.1082
▁राजदुत	-11.1083
वाङ	-11.1083
▁हमाल	-11.1085
न्डा	-11.1085
▁दलहरूको	-11.1086
▁गौरवको	-11.1088
▁हानि	-11.109
▁कोरियाका	-11.109
▁बलिउडमा	-11.1091
▁देशव्यापी	-11.1092
▁ऐनले	-11.1093
▁गणतन्त्रको	-11.1093
▁मधेसमा	-11.1096
▁हेरचाह	-11.1099
लै	-11.11
▁दायाँ	-11.1108
▁कटुवाल	-11.111
▁तीनवटै	-11.111
▁रोटी	-11.111
▁गणेशमान	-11.1112
▁कार्यसमितिको	-11.1113
▁गाविसको	-11.1116
▁रिजालले	-11.1117
▁डेटिङ	-11.1121
▁सेवालाई	-11.1122
▁अभ्यासमा	-11.1126
▁प्रजातन्त्रको	-11.1127
▁हातले	-11.1127
▁कसै	-11.1127
▁सिल	-11.1128
▁प्रधानले	-11.1131
ट्स	-11.1131
▁उपलक्ष्यमा	-11.1133
▁दिपेन्द्र	-11.1133
▁गरिसके	-11.1136
▁बन्नेछ	-11.1137
▁मौलिकता	-11.1138
▁जनकपुरमा	-11.1138
▁गर्छौ	-11.1141
▁अस्वाभाविक	-11.1141
▁मोवाइल	-11.1141
▁उद्यम	-11.1143
याली	-11.1143
▁भक्तपुरमा	-11.1144
▁राजमार्गको	-11.1145
▁मित्रता	-11.1146
▁वो	-11.1147
▁ललित	-11.1147
▁जोहो	-11.1148
▁श्रीकृष्ण	-11.1148
▁जनप्रतिनिधिले	-11.1149
▁गरेरै	-11.1152
▁चढ्ने	-11.1153
▁गराइने	-11.1154
▁सनातन	-11.1154
०७५	-11.1155
▁गौतमको	-11.1155
▁केन्या	-11.1157
▁नवनिर्वाचित	-11.1158
▁सोचाइ	-11.1159
▁साथसाथै	-11.1159
▁रामकृष्ण	-11.1159
किन	-11.1162
▁फोर	-11.1164
▁सुरुवाती	-11.1164
▁परिवारजन	-11.1164
▁पै	-11.1165
▁परमाणु	-11.1166
▁भन्छु	-11.1169
▁सदर	-11.117
▁गतिविधिमा	-11.1171
▁लगाइ	-11.1172
▁संज्ञा	-11.1173
▁चलाएका	-11.1175
▁बाधक	-11.1178
▁भित्रको	-11.118
▁विनाश	-11.1181
▁अनुप	-11.1184
▁रोक्का	-11.1184
▁बोले	-11.1184
▁जोडेको	-11.1187
▁लीला	-11.1188
▁नीतिको	-11.1188
▁दाग	-11.1192
▁लिइ	-11.1193
सिन	-11.1195
केही	-11.1198
▁निशान	-11.1202
प्रमुख	-11.1203
▁दीपकराज	-11.1206
▁घिमिरेको	-11.1207
ग्राम	-11.1207
्ना	-11.1208
▁देखिन्थे	-11.1212
▁जबसम्म	-11.1212
ाब	-11.1217
▁तवरले	-11.1217
▁पञ्जा	-11.1217
▁भब्य	-11.1225
ासाथ	-11.1225
▁हेरफेर	-11.1225
▁वाचा	-11.1226
▁अगस्ट	-11.1226
▁जनशक्तिको	-11.1228
▁कन्	-11.1229
▁पदाधिकारीहरु	-11.1233
▁रनले	-11.1233
▁मिल्न	-11.1234
माई	-11.1235
▁शेखर	-11.1237
▁विवाहको	-11.1238
▁भिन्नता	-11.1242
▁अग्रवाल	-11.1249
▁चुहावट	-11.125
▁आजभोलि	-11.1253
▁बसाई	-11.1255
▁मरेको	-11.1255
▁चढ्न	-11.1256
लको	-11.1261
▁इन्	-11.1262
▁नीतिले	-11.1265
▁ओसारपसार	-11.1267
▁रासायनिक	-11.1267
▁समर्पण	-11.1267
▁राज्यसत्ता	-11.1268
▁स्वामी	-11.127
▁कामदारले	-11.127
▁प्रशासनको	-11.1271
▁विरुवा	-11.1275
▁मिनेटको	-11.1281
२८	-11.1284
▁बिघा	-11.1285
▁टेकेर	-11.129
▁दुर्भाग्य	-11.1291
ीलाई	-11.1292
▁सोभियत	-11.1292
▁प्रधानसेनापति	-11.1293
▁क्रिकेटमा	-11.1296
▁गर्नुपर्यो	-11.1301
▁भद्रपुर	-11.1306
▁पिस	-11.1306
▁राजमार्गमा	-11.1308
▁अरेबिया	-11.1309
▁मणि	-11.131
▁लगाएत	-11.1311
▁भनेजस्तो	-11.1312
▁अग्रज	-11.1313
लिक	-11.1316
▁प्रस्तावमा	-11.1316
▁सुशीला	-11.1317
▁अभिभावकले	-11.1317
२९	-11.1317
▁जस्तोसुकै	-11.1319
▁काट	-11.1322
▁पण्डितले	-11.1325
िदिने	-11.1328
गल	-11.1332
▁सार्वभौम	-11.1334
ाइन	-11.1334
▁बुँदा	-11.1335
विकास	-11.1336
ाह	-11.1339
▁मञ्चमा	-11.1341
▁संसारकै	-11.1343
▁सहकर्मी	-11.1343
▁मास	-11.1343
▁आइएमई	-11.1344
▁बताउन	-11.1346
▁अपांगता	-11.1347
▁लिन्छ	-11.1348
कान्त	-11.1348
▁महन्थ	-11.1352
लन	-11.1355
▁हिँडेका	-11.1355
▁रुपमै	-11.1357
▁उपभोक्तालाई	-11.1357
हुन	-11.1359
▁कैदी	-11.1361
▁खोलेको	-11.1361
▁भेटिए	-11.1361
▁पाउ	-11.1362
द्	-11.1364
▁मोटो	-11.1364
▁बोलेका	-11.1366
▁पेज	-11.1367
▁येशू	-11.1368
▁घृणा	-11.1369
▁बोलाएको	-11.137
▁गाउँमै	-11.1371
▁स्वाभिमान	-11.1372
▁बाहिरिने	-11.1372
▁लेन	-11.1373
▁पीडितको	-11.1375
▁नेपालसँग	-11.1376
▁उपमहानगर	-11.1377
▁मन्त्रीको	-11.1377
▁कोहलपुर	-11.1378
▁इन्डिया	-11.1379
▁इन्डोनेसिया	-11.1381
▁इन्टर	-11.1381
▁थाल	-11.1385
▁बिजय	-11.1385
▁विनिमय	-11.1385
▁सम्पत्तिको	-11.1386
▁लापरवाही	-11.1387
▁वारेमा	-11.1388
▁यम	-11.1388
▁आउ	-11.1388
▁धरौटी	-11.1389
▁सुत्न	-11.1391
▁खेलेर	-11.1393
▁पर्यटकले	-11.1394
▁फर्निचर	-11.1394
▁हानिकारक	-11.1394
▁साँघुरो	-11.1395
▁सदस्यहरू	-11.1395
▁प्रतिष्ठानको	-11.1396
▁स्वर्गीय	-11.1397
▁मन्त्रालयबाट	-11.1399
▁छनोटमा	-11.14
▁नैतिकता	-11.1401
▁तयारीका	-11.1401
▁सुरुआत	-11.1403
▁आईसीसी	-11.1405
▁गोरखापत्र	-11.1409
▁कन्या	-11.1411
▁ज्योतिष	-11.1411
▁धूलो	-11.1412
ाम	-11.1415
आर्थिक	-11.1415
▁फौज	-11.1416
▁वैवाहिक	-11.142
मुलक	-11.1421
▁आरोही	-11.1421
▁नियोग	-11.1422
▁जनार्दन	-11.1422
▁कुर्सी	-11.1428
▁आइफोन	-11.1429
▁जीर्ण	-11.1429
▁नेकपाको	-11.1429
▁पर्वमा	-11.1437
▁कम्मर	-11.1438
▁बहुमुखी	-11.1438
▁पढेका	-11.144
▁बीस	-11.1443
▁अग्ला	-11.1443
▁मजदूर	-11.1443
▁सबैमा	-11.1446
▁निर्	-11.1449
▁खर्चमा	-11.1449
▁०७३	-11.1452
▁गराउनुपर्ने	-11.1452
माथी	-11.1453
▁मार्क	-11.1454
▁बोक्सी	-11.1455
▁ज्यादा	-11.1456
▁आम्दानीको	-11.1457
▁पहिल्यै	-11.1457
▁गैंडा	-11.1457
▁सर्वोच्चले	-11.1459
▁ते	-11.146
▁अधिकारीहरूले	-11.1461
▁कार्यालयहरु	-11.1461
▁दुग्ध	-11.1463
▁रिसर्च	-11.1463
▁बोझ	-11.1464
न्ज	-11.1467
▁बोहरा	-11.1468
▁भेट्ने	-11.1469
▁छायाँकन	-11.1472
▁छोड्ने	-11.1473
▁जीवन्त	-11.1474
▁मान्दै	-11.1474
्सले	-11.1475
भु	-11.1477
▁एकिकृत	-11.1477
▁योजनाहरु	-11.1478
▁पहिलेको	-11.1487
▁विडम्बना	-11.1488
▁स्वदेशमै	-11.1492
▁अनुभवी	-11.1493
▁पञ्चायती	-11.1495
▁निर्वाचनपछि	-11.1497
▁कतिले	-11.1497
▁डेनमार्क	-11.1498
▁परिषद्ले	-11.15
▁अपाङ्ग	-11.1502
▁संग्रहालय	-11.1502
▁रोकेर	-11.1505
▁महाअभियोग	-11.1506
▁काउन्टर	-11.1507
▁कारागारमा	-11.1508
▁समन्वयमा	-11.151
▁भुल	-11.1513
▁बढीमा	-11.1513
कर्म	-11.1522
▁लाखसम्म	-11.1526
▁किरा	-11.1529
▁रिसोर्ट	-11.153
▁खट	-11.1532
▁मनोबल	-11.1533
▁संविधानसभाबाट	-11.1534
▁यात्रुलाई	-11.1535
▁दाङको	-11.1537
परि	-11.1539
▁गाउँले	-11.1539
▁डाउनलोड	-11.1541
▁परिवेशमा	-11.1543
छिन्	-11.1543
रको	-11.1543
▁बताउछन्	-11.1544
▁भदौमा	-11.1544
▁पाठकले	-11.1546
ालय	-11.1547
▁प्रतिदिन	-11.1548
▁सहभागितामा	-11.1549
▁शहरको	-11.1551
▁शब्दको	-11.1555
▁अगष्ट	-11.1559
▁गोपनीयता	-11.1559
▁सार्न	-11.1559
▁सन्चालन	-11.156
▁सञ्चालनको	-11.1561
▁प्रतिनिधिसभामा	-11.1564
▁रावलले	-11.1564
▁अपरान्ह	-11.1567
▁हद	-11.1567
▁बढीको	-11.1567
न्न	-11.1569
▁अगावै	-11.1569
▁राजधानीका	-11.1569
ल्ट	-11.157
▁पाएकी	-11.1572
▁प्रायोजन	-11.1573
▁बाहिरका	-11.1578
▁आशय	-11.158
▁अयोग्य	-11.158
बादी	-11.1583
▁था	-11.1584
▁श्रीलङ्का	-11.1585
▁उनीमाथि	-11.1585
स्तरमा	-11.1587
▁किनार	-11.1589
ास	-11.1591
▁ढिलाई	-11.1592
▁हड्डी	-11.1593
▁पुगी	-11.1596
काम	-11.1599
िभ	-11.16
▁मनाइएको	-11.1601
▁एक्सचेन्ज	-11.1611
▁पौराणिक	-11.1611
▁संक्रमित	-11.1611
▁संसारभर	-11.1617
▁घोर	-11.1619
जीवन	-11.1619
▁सुझाब	-11.162
▁रक्सौल	-11.162
▁अबस्था	-11.1621
▁नागरिकहरु	-11.1622
▁तीर्थ	-11.1624
▁प्ले	-11.1626
▁उर्लाबारी	-11.1628
▁खि	-11.163
▁त्रिशूली	-11.1631
▁राईलाई	-11.1631
▁महत्वको	-11.1633
िएपछि	-11.1633
▁घरदैलो	-11.1634
ान्त	-11.1634
गाउँमा	-11.1635
▁एपीएफ	-11.1637
▁उत्खनन	-11.1638
▁लिँदा	-11.164
क्सन	-11.1644
▁सेकेन्ड	-11.1645
▁आश्विन	-11.1655
▁बञ्चित	-11.1655
▁पुस्ताले	-11.1656
▁कार्यक्रमहरू	-11.1656
▁हत्याकाण्ड	-11.1662
क्षा	-11.1662
▁वी	-11.1663
▁सिङ्गो	-11.1665
हान	-11.1668
▁हुन्छु	-11.1669
▁छैटौं	-11.1673
इन्	-11.1673
िच	-11.1673
▁पौडेललाई	-11.1673
▁कोमल	-11.168
▁परमेश्वरको	-11.1681
▁तिलक	-11.1682
ंस	-11.1684
▁अनुकुल	-11.1685
▁श्रीमतीको	-11.1688
▁उपभोक्ताको	-11.1688
तर्फको	-11.1689
रहेका	-11.1689
वर्ष	-11.169
सय	-11.1691
▁भेटिन्छन्	-11.1693
▁सघाउने	-11.1694
▁दाजुभाई	-11.1699
▁आशिष	-11.1699
▁साँ	-11.1701
▁बजेटले	-11.1703
▁कामका	-11.1706
▁बुद्धिजीवी	-11.1707
ङ्क	-11.1708
▁हरियाली	-11.1709
▁खोजेर	-11.1709
स्तरको	-11.171
खर	-11.171
▁हिलो	-11.1711
▁रमाउने	-11.1715
▁ब्लक	-11.1716
▁हनुमान	-11.1716
▁कतारमा	-11.1716
▁मुड	-11.1718
सको	-11.1719
▁हिड	-11.1719
▁कलेजका	-11.1719
▁ठमेल	-11.1723
धारी	-11.1723
▁नसा	-11.1724
▁मर्यादित	-11.1725
▁शुन्य	-11.1726
▁समकक्षी	-11.1727
▁एकाधिकार	-11.1728
ेनी	-11.1728
ेले	-11.1732
ाऊ	-11.1733
▁राजी	-11.1733
▁ब्याट्री	-11.1734
निर्माण	-11.1735
▁बिहानैदेखि	-11.1736
▁आकाशमा	-11.1737
▁निगमका	-11.1737
डिया	-11.174
▁परिभाषित	-11.1743
▁नीजि	-11.1744
▁ढंगबाट	-11.1746
▁नेविसंघ	-11.1746
▁अख्तियारले	-11.1746
▁माइतीघर	-11.1747
▁मधेशका	-11.1747
▁रामपुर	-11.1748
▁बिग	-11.1748
▁जोशीको	-11.1749
▁स्वदेशमा	-11.175
▁मेट	-11.175
▁झुण्ड	-11.1752
▁सचिब	-11.1752
▁तहबाट	-11.1753
▁पौष	-11.1755
▁जतिबेला	-11.1755
▁ब्यांक	-11.1757
ौली	-11.1757
▁भक्ति	-11.1759
▁ल्यापटप	-11.1761
▁गुमाउने	-11.1762
▁आडमा	-11.1763
▁गोबर	-11.1763
▁२०६६	-11.1764
▁निशा	-11.1764
▁इन्दिरा	-11.177
▁एकाइ	-11.1772
▁उठान	-11.1773
▁साउनमा	-11.1777
▁उद्योगलाई	-11.1781
▁सोझो	-11.1781
▁पाउँदैनन्	-11.1781
▁वीरेन्द्रनगर	-11.1783
्टा	-11.1783
▁जलेर	-11.1786
▁पूर्वाधारको	-11.1786
विक्रम	-11.1787
▁भारतबीच	-11.1788
▁सम्प्रेषण	-11.1788
यहाँ	-11.1788
▁ढुंगाना	-11.1788
▁लक्ष	-11.1789
▁रूपमै	-11.1789
▁गरिरहँदा	-11.1789
ानन्द	-11.1791
▁नाइट	-11.1792
ुप	-11.1792
▁रहेनछ	-11.1792
▁एयरपोर्ट	-11.1795
▁सुक	-11.1796
▁डीएसपी	-11.1796
▁संस्थाहरुले	-11.1799
▁लाग्नेछ	-11.18
▁मोबाइलमा	-11.1801
पना	-11.1801
▁खुब	-11.1803
▁माने	-11.1803
▁पाइ	-11.1804
▁प्रशान्त	-11.1814
▁स्पेनिस	-11.1815
▁क्रस	-11.1815
▁सम्झेर	-11.1817
▁रौनक	-11.1817
▁कुनामा	-11.182
▁छाडे	-11.1822
▁सङ्घको	-11.1827
▁क्लबमा	-11.1831
▁बदनाम	-11.1837
▁निकायबाट	-11.1838
▁अंकित	-11.184
▁संवाददाता	-11.1841
ुन्	-11.1841
▁रानाले	-11.1842
▁कमिटि	-11.1847
▁विस्तारको	-11.1848
▁ड्र	-11.1849
▁आजबाट	-11.185
▁नपा	-11.1851
▁प्रस्तावलाई	-11.1854
▁गिरोह	-11.1856
▁जनतासँग	-11.1857
▁होली	-11.1857
ुअघि	-11.1857
▁पारदर्शिता	-11.1859
▁पुरुषोत्तम	-11.1859
▁भेडा	-11.186
▁१९९८	-11.186
▁रक्षामन्त्री	-11.1861
▁जम	-11.1862
▁यसवर्ष	-11.1864
▁दबाबमा	-11.1865
▁समुहले	-11.1866
▁सिफारिसमा	-11.1866
▁महालेखा	-11.1868
▁हरायो	-11.1869
▁विधिको	-11.1873
▁मगरको	-11.1874
▁सर्ने	-11.1877
▁कर्जाको	-11.1878
▁दुरी	-11.1879
▁दीर्घ	-11.1879
▁क्लबको	-11.188
यल	-11.1885
▁टेन्डर	-11.1886
▁०७२	-11.1888
▁तिनीहरूलाई	-11.189
▁एक्सन	-11.1891
▁कपुर	-11.1893
▁हराएका	-11.1895
▁नगरपालीका	-11.1895
▁दिलाउने	-11.1895
▁भाँडा	-11.1896
▁आन्दोलनरत	-11.1898
महिला	-11.1899
▁विपत्ति	-11.1905
▁उत्पादकत्व	-11.1906
▁अविश्वास	-11.1907
▁भवानी	-11.1908
▁गर्नुस्	-11.191
▁वर्षाको	-11.1911
ैया	-11.1911
▁चुन	-11.1912
▁इजिप्ट	-11.1913
▁कोलम्बिया	-11.1913
▁सीमावर्ती	-11.1913
्दी	-11.1914
▁राजनीतिज्ञ	-11.1916
▁प्रोटिन	-11.1921
▁बसोवास	-11.1922
▁नेताका	-11.1923
▁भंग	-11.1926
▁अखण्डता	-11.1927
▁चेपाङ	-11.1928
▁विस्तारमा	-11.1928
▁सेन्टरमा	-11.1929
▁मिश्रले	-11.1929
▁चहलपहल	-11.1931
▁पुनर्संरचना	-11.1931
▁जवाफमा	-11.1935
▁रहनुभएको	-11.1935
▁चाहि	-11.1936
▁बिरामीले	-11.1937
▁क्याप्टेन	-11.194
▁स्थानका	-11.1943
▁सहकारीले	-11.1945
▁त्यसबाहेक	-11.1948
▁डेब्यु	-11.1949
▁विश्वमै	-11.1953
▁भावुक	-11.1954
▁छैनन	-11.1957
▁खेलबाट	-11.1958
र्ने	-11.1962
▁कमि	-11.1962
▁पकड	-11.1963
▁हेड	-11.1963
▁रगतको	-11.1967
ञ्च	-11.1968
▁कञ्चनपुरका	-11.1968
▁हाकिम	-11.1976
▁याे	-11.1977
वटा	-11.1977
▁सचेतक	-11.1978
कथा	-11.1978
▁ठाँउ	-11.1978
▁राजवंशी	-11.198
▁प्रविधिमा	-11.198
▁महिलामा	-11.1982
▁इन्डियन	-11.1987
मिस	-11.1988
▁रोकथाम	-11.1992
▁ह्रास	-11.1994
▁ह्वात्तै	-11.1994
▁उत्पीडित	-11.1994
▁करियर	-11.1994
▁स्याहार	-11.1994
▁जव	-11.1995
▁सुकै	-11.1996
▁बैंकबाट	-11.1997
▁वैशाखमा	-11.1997
▁त्यसयता	-11.1999
▁बढाउनुपर्ने	-11.2003
▁बिश्वास	-11.2004
उने	-11.2006
▁दिलाए	-11.2007
▁साबिक	-11.2007
िदा	-11.201
▁अठोट	-11.2012
▁विद्यार्थीहरू	-11.2014
्याएर	-11.2015
▁]	-11.2017
▁पीडितले	-11.2017
▁कोरियन	-11.2018
▁टेण्डर	-11.2021
▁साइबर	-11.2022
▁दिएन	-11.2024
▁वित्तिय	-11.2024
मती	-11.2024
▁घाट	-11.2024
▁आभार	-11.2028
▁पहिचानको	-11.2028
▁यात्रुको	-11.2029
▁चारजना	-11.2029
▁विज्ञहरु	-11.203
▁भियतनाम	-11.203
▁नकआउट	-11.203
▁कुँवरले	-11.2031
▁जोगाउने	-11.2032
▁पार्टनर	-11.2033
▁यथावत	-11.2035
▁मुद्दालाई	-11.2036
▁कलेजले	-11.2037
७०	-11.2037
स्थ	-11.2038
ोन	-11.2038
▁नारायणकाजी	-11.204
▁लक्ष्यका	-11.204
):	-11.2041
▁बलात्कारका	-11.2042
▁उपलव्ध	-11.2046
सले	-11.2047
▁संस्थाहरू	-11.2047
▁विवादास्पद	-11.2049
▁विनय	-11.205
गढी	-11.205
कको	-11.2051
▁आभास	-11.2053
▁हिम	-11.2053
सक्छ	-11.2054
▁शिर्ष	-11.2056
▁जुलुस	-11.2056
▁मिठाई	-11.2058
▁बजारबाट	-11.206
▁तपाईँ	-11.206
▁छलफलका	-11.206
▁हिँड	-11.2061
▁चलचित्रले	-11.2061
कमा	-11.2062
▁जुनियर	-11.2065
▁ठाउँका	-11.2067
▁झापामा	-11.2068
▁मेट्रो	-11.2069
▁सच्चा	-11.207
स्वरूप	-11.207
▁लिम्बुवान	-11.2073
्यौँ	-11.2075
▁नाट्य	-11.2082
▁चिन्न	-11.2082
▁बलिङ	-11.2084
▁पदमार्ग	-11.2085
▁घटनास्थल	-11.2085
▁संस्थाबाट	-11.2086
▁हाँस	-11.2086
▁बलात्कारको	-11.209
▁ब्रेक	-11.2091
▁वैठक	-11.2091
▁रायमाझी	-11.2091
▁सातै	-11.2092
▁पुँजीवादी	-11.2092
▁मानिसहरूले	-11.2094
जुन	-11.2094
▁संकलित	-11.2094
▁एसएमएस	-11.2095
तालाई	-11.2102
▁समुन्द्र	-11.2102
▁बित	-11.2104
▁मनोवैज्ञानिक	-11.2104
▁सोध	-11.2104
▁बुकिङ	-11.2105
▁उन्मुक्ति	-11.2105
पुरमा	-11.2107
डु	-11.2108
▁पत्रपत्रिका	-11.2108
▁ल्या	-11.2109
▁नागरिकका	-11.2109
▁उसै	-11.211
यान	-11.2111
हरि	-11.2112
▁अनियन्त्रित	-11.2113
▁युद्धको	-11.2113
▁आध्यात्मिक	-11.2114
▁मैथिली	-11.2115
▁बुझाए	-11.2119
▁गैँडा	-11.2121
▁उल्लिखित	-11.2122
▁अवस्थाका	-11.2123
▁हजारसम्म	-11.2124
▁त्यसबारे	-11.2125
▁उभिएको	-11.2126
▁कहाँबाट	-11.2126
▁आङ	-11.2127
▁बीबीसी	-11.2129
▁दिइ	-11.2131
▁छुट्याइएको	-11.2132
▁माध्यमले	-11.2133
▁शासकीय	-11.2133
▁घिसिङ	-11.2134
▁रोल	-11.2134
▁मोडलिङ	-11.2137
▁फ्रि	-11.2138
सरकार	-11.2141
▁नोबेल	-11.2141
▁अवधिको	-11.2142
▁अलमल	-11.2147
हिन	-11.2148
▁भुसालले	-11.2148
▁प्रदर्शनीमा	-11.2148
▁अंकमा	-11.2149
▁सिण्डिकेट	-11.215
▁यत्रो	-11.215
७२	-11.2152
लर	-11.2153
▁लक्ष्मीको	-11.2153
▁फैल	-11.2158
▁पन्ध्र	-11.2158
▁वै	-11.2159
▁उत्तरदायी	-11.216
▁चीनलाई	-11.2161
▁सिरिज	-11.2161
▁बडी	-11.2164
▁आदी	-11.2168
▁नन्द	-11.2168
▁दातृ	-11.2168
▁मान्य	-11.2177
▁चेकजाँच	-11.2177
▁ब्रोकर	-11.2178
▁मुखिया	-11.2179
िड	-11.2182
▁टो	-11.2182
▁श्रृंखला	-11.2187
▁जापानका	-11.2187
▁पटक्कै	-11.2187
▁घटनास्थलमा	-11.2187
▁संगित	-11.2189
▁नपरेको	-11.2192
▁हेरेको	-11.2192
▁नाकाबाट	-11.2196
▁गर्दे	-11.2199
▁छापेको	-11.2199
ंदा	-11.2201
▁नोक्सान	-11.2201
▁मेलाको	-11.2202
▁मेशिन	-11.2204
▁सीमांकन	-11.2206
▁बिर	-11.2208
▁रहनेछन्	-11.2208
▁साइड	-11.2209
▁खवर	-11.221
▁अरूले	-11.221
ाड	-11.2211
▁एकदिवसीय	-11.2215
▁क्रियाकलापमा	-11.2219
▁पुर्न	-11.2223
▁जन्मिएको	-11.2224
▁नगरिएको	-11.2226
▁सोचेको	-11.2226
▁फर्काउन	-11.2226
ेरी	-11.2226
▁पन्थी	-11.2226
▁देउवालाई	-11.2228
▁गर्नुभन्दा	-11.2228
▁ज्यु	-11.2229
▁तोला	-11.2229
▁उत्पादनका	-11.223
▁कीर्तिपुर	-11.2231
▁पिच	-11.2233
▁बाबजुद	-11.2233
▁स्थापनाका	-11.2234
▁केश	-11.2234
ाे	-11.2236
▁लगानीकर्तालाई	-11.2238
▁सानैदेखि	-11.2242
▁आविष्कार	-11.2242
▁श्रद्धाञ्जली	-11.2242
▁संरक्षित	-11.2243
▁भिर	-11.2243
▁निर्वाचनलाई	-11.2245
▁अध्ययनको	-11.2248
▁फाँट	-11.225
▁साथीको	-11.225
▁मनाउँदै	-11.225
▁वर्गीय	-11.2252
▁डुबान	-11.2254
उनले	-11.2255
▁बाउ	-11.2257
संगको	-11.2257
▁गराउनुभयो	-11.2259
▁मुनि	-11.226
▁नेपालीहरू	-11.226
ताले	-11.2264
्सा	-11.2264
▁कक्षमा	-11.2266
▁स्वस्थ्य	-11.2271
▁महिलाहरुलाई	-11.2272
▁कमेडी	-11.2272
▁घट्ना	-11.2272
▁प्रमाणीकरण	-11.2274
वहादुर	-11.2278
▁बेलाबेलामा	-11.2278
▁तालमा	-11.2278
▁विश्लेषक	-11.2281
▁खरेलले	-11.2282
▁आउछ	-11.2282
▁खेलका	-11.2282
▁प्रतिवादी	-11.2283
▁झापाका	-11.2283
▁हैरान	-11.2286
▁बिर्सन	-11.2286
▁सर्	-11.2286
▁२००४	-11.2288
▁जाँगर	-11.229
ुपथ्र्यो	-11.2291
▁बहाव	-11.2292
▁थोक	-11.2292
▁पप	-11.2295
▁रातारात	-11.2299
▁नाइजेरिया	-11.2299
▁देवेन्द्र	-11.23
▁जप	-11.2303
▁लायक	-11.2304
▁सव	-11.2305
▁सामन्ती	-11.2307
▁अत्याचार	-11.2308
▁क्षेत्रभित्र	-11.2308
सिस	-11.2309
▁तीब्र	-11.2311
्याउँदै	-11.2311
▁रत्ननगर	-11.2312
▁तिल	-11.2315
ुको	-11.2316
▁लडेर	-11.2317
▁कोषाध्यक्षमा	-11.232
▁बुढाले	-11.232
▁अष्ट्रेलियाको	-11.2324
▁सन्तोषजनक	-11.2327
▁शिक्षालाई	-11.2328
▁केन्द्रीत	-11.2331
▁गुरुङलाई	-11.2334
▁द्वितीय	-11.2337
▁गार्ड	-11.2341
▁जिताउन	-11.2342
▁लाने	-11.2343
▁कास्कीको	-11.2345
▁राजदूतावास	-11.2346
थी	-11.2347
▁यहीँ	-11.2347
▁औंला	-11.235
▁कँडेल	-11.2354
▁क्यासिनो	-11.2355
▁पोखरेलको	-11.2358
▁बैठकबाट	-11.2358
▁पारिएका	-11.2361
▁क्लिक	-11.2362
▁हेक्का	-11.2364
▁छरिएर	-11.2365
▁चन्दले	-11.2367
▁दिमागमा	-11.2367
▁रेस्टुरेन्ट	-11.2368
▁सिंहदरबारमा	-11.2368
▁दुखाइ	-11.2369
▁उदेश्य	-11.237
▁असमानता	-11.2371
▁माथिका	-11.2371
▁व्यास	-11.2372
▁भुजेल	-11.2373
▁थियाे	-11.2375
▁भनियो	-11.2376
पुर्ण	-11.2376
▁डुंगा	-11.2378
▁भिडन्त	-11.2379
▁थाहै	-11.238
द्व	-11.2383
▁नपाए	-11.2384
▁मर	-11.2384
▁दर्शकलाई	-11.2385
▁नपुगेको	-11.2387
▁हर्ष	-11.2387
▁दिनहरुमा	-11.2387
▁बन्धक	-11.2391
ारी	-11.2391
▁प्रगाढ	-11.2393
▁पदयात्रा	-11.2393
मत	-11.2394
▁सान	-11.2394
ग्रस्त	-11.2396
फर	-11.2398
▁अघिल्ला	-11.2398
रत्न	-11.2402
▁पुस्ताका	-11.2403
▁बिन्दुमा	-11.2403
▁जर्सी	-11.2404
▁क्षेत्रिय	-11.2405
▁दिनेछ	-11.2407
▁नपाएपछि	-11.2407
▁झन्डा	-11.2407
▁क्यान्सरको	-11.2409
़	-11.241
▁१९५०	-11.2413
▁उचाई	-11.2416
▁भूत	-11.2419
▁मिल्यो	-11.2423
▁बेलैमा	-11.2427
▁अभियानले	-11.243
▁प्याराग्लाइडिङ	-11.2431
▁हेर्नुहोस्	-11.2431
नेपालको	-11.2431
▁उदेश्यले	-11.2431
▁२०५८	-11.2433
▁अधिकारलाई	-11.2433
▁कलाकारले	-11.2434
▁किनेको	-11.2436
▁ढाड	-11.2438
▁आत्मघाती	-11.2441
▁नाइके	-11.2441
▁करदाता	-11.2442
▁प्राज्ञिक	-11.2442
▁सम्भवतः	-11.2443
र्ण	-11.2444
▁अनुसन्धानकर्ता	-11.2448
▁उग्र	-11.2449
▁हिँडेको	-11.2449
▁द्रुत	-11.2449
▁पोख्रेल	-11.245
▁प्रतिकिलो	-11.245
▁अर्की	-11.245
▁पर्वका	-11.2451
▁उप्रेतीले	-11.2452
पोखरा	-11.2454
िंदै	-11.2455
▁गुल्मीको	-11.2458
▁ईलाका	-11.2459
बोध	-11.2459
▁जोर	-11.2462
मेल	-11.2464
▁हँुदै	-11.2464
▁बालुवाटार	-11.2465
▁मागलाई	-11.2465
▁मास्टर	-11.2466
म्म	-11.2466
▁मातहतमा	-11.2466
▁जोडे	-11.2468
▁चितवनले	-11.2468
▁टेनिस	-11.2469
▁विनाशकारी	-11.2469
स्वास्थ्य	-11.2471
▁रुपैंया	-11.2474
▁लान	-11.2477
▁जलेश्वर	-11.2477
▁चाहेका	-11.2479
▁नमान्ने	-11.2479
▁मुहार	-11.2483
८०	-11.2485
▁यमपञ्चक	-11.2488
▁खनिज	-11.2488
▁फाउन्डेसन	-11.2488
जीको	-11.2491
▁वर्षौंदेखि	-11.2492
▁हेरी	-11.2492
▁जाहेर	-11.2492
▁यूरोप	-11.2493
▁नवौं	-11.2493
▁फोरमका	-11.2493
▁ठाउ	-11.2494
▁स्पष्टीकरण	-11.2494
▁प्रदेशसभामा	-11.2495
▁बाँडफाँट	-11.2497
▁वापत	-11.2498
▁माओवादीलाई	-11.2503
▁चीज	-11.2504
▁घोषणापत्रमा	-11.2504
▁खर	-11.2505
▁नब	-11.2505
▁निकाल्दै	-11.2507
▁मौसमी	-11.2509
▁यहाँसम्म	-11.2509
ल्ला	-11.251
▁ढ	-11.2511
▁बालबालिकाले	-11.2514
▁क्रेडिट	-11.2517
▁उडेको	-11.2517
नर	-11.2522
▁कलंकी	-11.2522
▁इकाइ	-11.2526
▁हावापानी	-11.2528
▁जनवाद	-11.2531
▁सांसदहरु	-11.2533
▁मन्तब्य	-11.2535
▁ट्याक्टर	-11.2536
▁स्टे	-11.2538
▁सकिदैन	-11.2538
▁कथन	-11.2538
काजी	-11.2539
▁कन्सर्ट	-11.2541
▁फस्ट	-11.2542
▁अप्रत्यक्ष	-11.2546
▁दुइटा	-11.2547
▁जोडिने	-11.2547
▁याम	-11.2548
▁महाभूकम्प	-11.2548
यौँ	-11.2549
▁भएता	-11.2549
▁सिजनमा	-11.255
▁शिक्षकलाई	-11.2551
म्बु	-11.2554
▁साहित्यका	-11.2555
▁लगे	-11.2556
▁क्षमताका	-11.256
पश्चात	-11.256
▁च्याप्टर	-11.2561
▁विद्यार्थीहरुले	-11.2562
धार	-11.2563
▁राजनितिक	-11.2563
▁न्यायालय	-11.2565
संविधान	-11.2569
▁ज्ञानको	-11.2571
▁ट्रेडिङ	-11.2573
गृह	-11.2574
▁चलाउँदा	-11.2575
▁आफन्तको	-11.2575
▁जिउ	-11.2575
▁बाँच्ने	-11.2576
▁ल्याउनुपर्ने	-11.2576
▁मिटरको	-11.2578
▁आत्मसात	-11.2579
▁खोलिएको	-11.2582
▁इजाजत	-11.2583
▁लगाएपछि	-11.2585
टोल	-11.2587
▁क्षमतामा	-11.2588
▁जोखिमपूर्ण	-11.2591
▁उम्मेदवारले	-11.2594
▁उद्घोष	-11.2598
▁मेस्सी	-11.2601
खी	-11.2602
▁लाग्नुपर्ने	-11.2602
▁रूपन्देही	-11.2603
▁सुनौलो	-11.2603
▁ढोरपाटन	-11.2603
▁घुँडा	-11.2603
▁पूर्वमा	-11.2606
संघीय	-11.2607
डर	-11.2608
▁थप्न	-11.2609
▁बिताउन	-11.2611
▁प्यूठान	-11.2612
▁बिक्रेता	-11.2612
▁नयां	-11.2613
िश	-11.2621
▁अघिसम्म	-11.2622
▁स्वा	-11.2623
ँग	-11.2624
▁बेलायतका	-11.2624
▁देखिन्न	-11.2626
▁केहीबेर	-11.2628
ुङ	-11.2628
▁भेटिन्छ	-11.2629
▁सन्तानको	-11.2631
▁चढ	-11.2632
▁महिलामाथि	-11.2632
▁विश्वविद्यालयले	-11.2636
▁मुन	-11.2636
▁मारेर	-11.2637
ोट	-11.2641
▁अपडेट	-11.2642
▁करिअर	-11.2642
▁अँध्यारो	-11.2643
▁नगरेका	-11.2645
▁लाइट	-11.2647
▁सफलतापूर्वक	-11.2648
▁गाएर	-11.2649
▁खेल्नेछ	-11.265
▁आगजनी	-11.2651
▁मण्डली	-11.2654
▁सदस्यहरुले	-11.2654
▁संगीतको	-11.2656
ोप	-11.2657
▁दार्जिलिङ	-11.2658
▁तिब्र	-11.2661
▁रामकुमार	-11.2663
▁थियौ	-11.2665
▁लैंगिक	-11.2671
▁हाइड्रोपावर	-11.2671
▁दिएनन्	-11.2671
▁रहँदैन	-11.2671
▁काका	-11.2672
हल	-11.2672
▁जङ्गल	-11.2673
र्त	-11.2675
▁बहाना	-11.2675
▁बाँधेर	-11.2679
▁संसोधन	-11.268
▁राजसंस्था	-11.2682
▁चारै	-11.2688
▁दुवैलाई	-11.2688
▁गएँ	-11.2689
▁चिनिन्छ	-11.2689
ममा	-11.2691
▁गर्नुहोला	-11.2691
ीया	-11.2693
▁थाह	-11.2694
सक	-11.2698
▁राष्ट्रियताको	-11.2698
गर्न	-11.27
▁भूकम्पका	-11.2701
वाली	-11.2703
▁मधु	-11.2704
▁मनो	-11.2705
▁साथीहरुले	-11.2705
▁अपराधमा	-11.2708
▁बजारका	-11.2709
▁ताला	-11.271
▁दस्तुर	-11.271
ोर	-11.271
▁रामशरण	-11.271
▁दूरीमा	-11.2711
▁दिनभरि	-11.2711
▁लसुन	-11.2711
▁न्युनतम	-11.2712
▁लोकतन्त्रमा	-11.2712
▁निहित	-11.2712
▁बानेश्वर	-11.2712
▁कसैसँग	-11.2713
▁देखाउनु	-11.2715
▁निधि	-11.2716
द्घ	-11.2718
▁त्यहीं	-11.2718
▁खडेरी	-11.2719
▁चरणका	-11.272
▁भाले	-11.2722
▁माग्दै	-11.2723
▁फ्रान्सको	-11.2723
▁रेष्टुरेन्ट	-11.2726
▁ओपन	-11.2726
▁प्लाष्टिक	-11.2727
▁उत्तरमा	-11.2728
▁राष्ट्रवाद	-11.2728
▁हिजोको	-11.2729
▁अपुग	-11.2729
▁बिभाग	-11.273
▁समर्थनमा	-11.273
▁सुलभ	-11.273
पालिका	-11.2733
▁आफुहरु	-11.2738
▁मान्छेहरू	-11.2739
पर्	-11.2742
▁विकाश	-11.2746
▁जनाउन	-11.2749
▁मान्नु	-11.2749
▁फेसबुकले	-11.2752
▁पाँचवटा	-11.2753
ण्डा	-11.2755
▁अस्वस्थ	-11.2756
▁बताउँछ	-11.2759
▁आत्मसात्	-11.2763
विशेष	-11.2764
▁पुराण	-11.2766
▁दिलिप	-11.2768
▁परिमाणमा	-11.2768
▁शुद्धीकरण	-11.277
▁पुटिन	-11.277
िरहँदा	-11.277
▁सकेमा	-11.277
▁मनन	-11.2774
▁चलाए	-11.2775
▁गोल्ड	-11.2777
▁ब्याट्सम्यान	-11.2778
▁हलिउड	-11.2778
▁गोल्डेन	-11.2779
▁मैनाली	-11.278
▁केबल	-11.2781
▁आदेशमा	-11.2783
▁आवागमन	-11.2786
▁छोराले	-11.2788
▁लगानीकर्ताको	-11.2788
▁यसपटकको	-11.279
पुरा	-11.279
राष्ट्र	-11.279
▁मञ्चन	-11.2791
▁भईसकेको	-11.2792
▁काव्य	-11.2792
▁हराउन	-11.2793
▁छुट्याएको	-11.2796
▁भाषाका	-11.2796
▁स्टेसन	-11.2796
▁दरखास्त	-11.2798
▁हुलाकी	-11.2798
▁पठाएर	-11.2799
सुर	-11.2803
▁कानूनको	-11.2804
▁हर्	-11.2806
▁षडयन्त्र	-11.2808
▁फे	-11.2808
ल्ल	-11.2809
▁कम्पनि	-11.281
▁नरम	-11.2811
▁सुगम	-11.2815
▁जिब्रो	-11.2818
▁कार्यतालिका	-11.2818
▁रोकेको	-11.2821
ुभएका	-11.2821
▁तारिखमा	-11.2821
▁चौकीमा	-11.2824
▁कोदो	-11.2825
▁प्रतिष्पर्धा	-11.2825
▁सच्याउन	-11.2826
यात्रा	-11.2827
▁ढिलासुस्ती	-11.2827
▁आयआर्जन	-11.2828
▁चौतारा	-11.2828
च्च	-11.2829
▁नेसनल	-11.283
कुन	-11.2834
▁जातिय	-11.2836
रह	-11.2836
▁मानिएका	-11.2836
▁बिहीवार	-11.2837
पल्ट	-11.2838
▁साँच्चिकै	-11.2838
▁पुस्तालाई	-11.2839
▁२५०	-11.284
▁पाएन	-11.284
▁आजीवन	-11.284
▁कृषकलाई	-11.2842
▁विवाहित	-11.2843
▁पाउनुपर्छ	-11.2845
ुत	-11.2845
▁चीनबीच	-11.2846
▁अफ्रिकी	-11.2847
▁हरितालिका	-11.2847
▁अस्मिता	-11.2848
▁गौरा	-11.2848
क्रि	-11.2849
▁सदस्यहरुको	-11.2849
स्प	-11.2849
▁माटोको	-11.285
▁मनको	-11.2855
▁बदल्न	-11.2856
▁आरक्षण	-11.2858
▁ठ्याक्कै	-11.2858
▁दलहरुको	-11.2858
▁उषा	-11.2859
▁पुष्पलाल	-11.2859
▁बृद्ध	-11.2862
▁पतन	-11.2862
▁उपसभामुख	-11.2867
▁अनेसास	-11.2868
▁दर्जनभन्दा	-11.2872
▁चालकलाई	-11.2873
▁पाइन्छन्	-11.2874
▁यौनसम्पर्क	-11.2877
▁जवाफदेही	-11.2877
▁इँटा	-11.2877
▁हुलाक	-11.2878
▁पुनर्वास	-11.2879
▁बाहेकका	-11.2879
▁देखिदैन	-11.2881
▁वस	-11.2883
▁मागे	-11.2886
▁पुग	-11.2886
▁खुवाउन	-11.2887
▁संक्षिप्त	-11.2887
▁नाति	-11.2887
▁कृषकले	-11.289
▁जनही	-11.2893
▁तथ्यांकअनुसार	-11.2894
▁पर्दछन्	-11.2896
▁उपल्लो	-11.2897
▁तेलको	-11.2905
▁ब्रा	-11.2905
▁अर्कालाई	-11.2905
▁अन्तिममा	-11.2907
▁मनाइँदैछ	-11.2908
▁कार्यकर्ताहरु	-11.2909
▁सन्त	-11.2909
▁उद	-11.2912
▁जन्मदिन	-11.2913
▁सक्दिन	-11.2914
▁देशहरुमा	-11.2914
▁तलव	-11.2915
मू	-11.2917
▁पाण्डेको	-11.2917
▁पुनःस्थापना	-11.2917
▁बस्नेतको	-11.292
▁बिहार	-11.2922
जान	-11.2923
▁हप्ताको	-11.2923
▁शि	-11.2924
▁आर्य	-11.2925
▁लक्ष्मीप्रसाद	-11.2926
▁लिभरपुल	-11.2927
▁खिच्न	-11.2927
▁हजुरआमा	-11.2928
▁ह्या	-11.2928
▁सवा	-11.293
▁यहाँबाट	-11.293
▁खरिददर	-11.2932
▁खानले	-11.2933
▁आमन्त्रण	-11.2937
▁ं	-11.2937
▁क्र	-11.2937
▁राख्नुभएको	-11.2943
▁मलेशिया	-11.2947
▁इमानदार	-11.2947
▁जडिबुटी	-11.2947
▁उत्साहजनक	-11.2947
▁बस्नुपर्ने	-11.2952
▁विर	-11.2955
▁निष्क्रिय	-11.2957
▁सम्वन्धी	-11.2958
नुपर्ने	-11.2959
▁शमशेर	-11.2961
▁वाग्ले	-11.2961
▁गएकाले	-11.2966
▁मानन्धर	-11.2967
▁असोजमा	-11.2969
▁युवाहरुलाई	-11.2973
▁बढ्नुपर्ने	-11.2974
▁निर्विरोध	-11.2977
▁पाइपलाइन	-11.2977
▁लुक	-11.298
▁भेगका	-11.2981
ाद	-11.2982
▁हुनुअघि	-11.2984
▁बिस	-11.2986
▁साम्राज्ञी	-11.2987
▁बिनोद	-11.2987
▁बढिरहेका	-11.2989
▁वालिङ	-11.2989
चन	-11.2991
▁चुनावका	-11.2992
्सन	-11.2995
▁फिलिपिन्स	-11.2996
▁प्रधानमन्त्रीका	-11.2996
▁घुम्ती	-11.2997
▁नजिकका	-11.2997
▁गोदाम	-11.2998
▁औषध	-11.3001
▁कालोबजारी	-11.3001
▁चढेको	-11.3001
▁अर्थतन्त्रलाई	-11.3002
▁प्रतिमा	-11.3003
पूजा	-11.3014
▁शासनको	-11.3014
ाउदा	-11.3015
▁हलेसी	-11.3018
▁वित्तिकै	-11.3019
▁तृतीय	-11.302
▁नगरको	-11.302
▁चाहन्छौं	-11.302
▁हुदाँ	-11.3025
▁पश्चात्	-11.3026
▁बतायो	-11.3028
▁देखिनु	-11.3029
▁लिमिटेडको	-11.3031
अन	-11.3031
▁मस्यौदामा	-11.3031
▁उपेक्षा	-11.3037
▁कोइरालालाई	-11.3038
सिप	-11.3038
▁इलामको	-11.3039
▁तास	-11.3039
एउटा	-11.3042
▁हुर्क	-11.3043
▁रुपैयाँभन्दा	-11.3044
हित	-11.3044
▁छोडेको	-11.3046
पद	-11.3047
▁चकित	-11.3048
▁बाँस	-11.3049
▁मिसाएर	-11.305
▁दूत	-11.3053
▁ताप	-11.3053
▁शर्मालाई	-11.3056
▁मरे	-11.3056
▁गाडि	-11.3059
▁अतः	-11.3062
▁ठाकुरले	-11.3063
▁गर्नुअघि	-11.3065
▁अल्	-11.3067
▁परित्याग	-11.3067
▁चाहनुहुन्छ	-11.3067
▁गरिएन	-11.3068
▁मुस्कान	-11.3068
▁पत्रकारको	-11.3068
▁पार्टि	-11.3069
र्म	-11.307
▁स्थानहरुमा	-11.307
▁कारवाहीको	-11.307
▁शेष	-11.307
▁यसबारेमा	-11.3074
▁सुकुम्बासी	-11.3078
▁रामेश्वर	-11.3078
▁लोड	-11.308
▁प्रयोगले	-11.3081
▁गन्ध	-11.3083
▁अग्र	-11.3084
▁शरण	-11.3084
▁आआफ्नो	-11.3088
▁मनोनित	-11.3088
▁बलात्कृत	-11.3088
▁परिवर्तित	-11.3088
▁श्रीमति	-11.3088
▁निमन्त्रणा	-11.3089
▁मादल	-11.309
▁समाजवादको	-11.3091
▁चट्टान	-11.3091
▁गोरखाको	-11.3092
▁खुलाउन	-11.3093
▁सुनिन्छ	-11.3097
▁छिटै	-11.3098
▁झु	-11.3098
▁महालक्ष्मी	-11.3098
▁नपरोस्	-11.3099
▁नवलपुर	-11.3099
▁टोलमा	-11.31
यम	-11.3103
▁श्रीमतीलाई	-11.3103
▁फाल्ने	-11.3106
▁एटिएम	-11.3108
▁महासेठ	-11.3108
▁बैंकलाई	-11.3108
▁तान्ने	-11.3108
कार्यकर्ता	-11.3109
▁सोचमा	-11.311
▁समेट्ने	-11.3111
▁ग्या	-11.3113
▁बसेकी	-11.3117
▁दुर्घटनाको	-11.3118
▁सुदर्शन	-11.3119
▁तीस	-11.3121
▁गरोस्	-11.3121
▁खुलेका	-11.3122
▁ब्यस्त	-11.3122
▁स्थानीयबासी	-11.3125
सान	-11.3127
▁आँकलन	-11.3128
▁अधिकारीहरु	-11.3131
शिल	-11.3131
लाख	-11.3135
▁तत्कालका	-11.3136
▁सातादेखि	-11.3138
▁बेथिति	-11.3138
▁हिमपात	-11.3139
▁परामर्शदाता	-11.3139
प्रा	-11.3144
▁रोकिएका	-11.3146
▁बिचौलिया	-11.3149
▁धातु	-11.3149
▁ब्याङ्क	-11.315
▁पर्ला	-11.3152
▁जन्माउने	-11.3154
च्छ	-11.3156
गि	-11.3158
▁फाइबर	-11.3159
▁नेकपाले	-11.316
यौ	-11.3161
▁गाँस	-11.3163
▁बोक्न	-11.3163
▁दिलाएका	-11.3166
▁शम्भु	-11.3167
▁शताब्दीमा	-11.3168
▁प्युठान	-11.3169
▁शतप्रतिशत	-11.3169
▁प्रभावकारिता	-11.3169
▁झार	-11.3172
▁भण्डारीलाई	-11.3176
▁नदि	-11.3178
▁तानसेन	-11.3179
▁कूटनीति	-11.318
▁दिइसकेको	-11.318
▁दोहन	-11.318
सेल	-11.318
▁सल	-11.3181
▁आफैलाई	-11.3181
्ति	-11.3181
▁पाल्न	-11.3186
▁प्यारो	-11.3186
▁कुटनीतिक	-11.3188
▁समस्त	-11.3188
ङग	-11.3189
▁प्रसूति	-11.3189
▁माथेमा	-11.319
▁बोर्डिङ	-11.319
▁नपाउँदै	-11.319
▁साइन्स	-11.3191
▁राउण्ड	-11.3193
▁बस्यो	-11.3195
▁दुःखी	-11.3196
▁फैलाउने	-11.3199
▁नेपालीहरूको	-11.3203
▁कलात्मक	-11.3204
ाइन्छ	-11.3204
▁काखमा	-11.3206
▁बिम्स्टेक	-11.3206
▁रोगले	-11.3208
▁हामि	-11.3208
▁वेस्ट	-11.3209
▁पुरी	-11.3216
▁स्नेह	-11.3216
्को	-11.3216
▁बियर	-11.3216
▁तला	-11.3221
▁राजनीतिले	-11.3221
पार	-11.3223
▁बोसो	-11.3223
▁स्विकार	-11.3227
मुख	-11.3228
▁सभापतित्वमा	-11.323
▁लगानि	-11.3231
▁पार्टीबाट	-11.3231
दीप	-11.3231
▁मनपरी	-11.3232
▁लेख्नु	-11.3233
▁सार्की	-11.3233
▁खण्डन	-11.3235
पल	-11.3235
कृत	-11.3236
▁सिड्नी	-11.3237
▁पत्रकारलाई	-11.3237
▁खादा	-11.324
▁झन्झट	-11.3241
▁काभ्रेपलाञ्चोक	-11.3241
इस	-11.3242
▁सकिन्थ्यो	-11.3242
▁तोक्न	-11.3242
▁बिराटनगर	-11.3243
▁प्रतिरोध	-11.3245
▁पुरुषलाई	-11.3245
▁आफूमाथि	-11.3246
▁गरीबी	-11.3246
▁सभालाई	-11.3246
▁बनाइयो	-11.3249
▁उम्मेदवारलाई	-11.325
▁प्राप्तिको	-11.3251
▁दाइजो	-11.3252
▁मेष	-11.3252
सामाजिक	-11.3254
▁नलिने	-11.3257
▁त्रिपाठी	-11.3258
▁लत	-11.3259
▁बाबुको	-11.326
▁विषेश	-11.3261
▁खन	-11.3261
▁खुट्टामा	-11.3262
▁सगरमाथाको	-11.3263
▁प्रदेशसभाका	-11.3264
▁आँखाले	-11.3266
▁खो	-11.3266
▁करोडभन्दा	-11.3267
राजनीतिक	-11.3268
▁आश्रित	-11.3272
▁पञ्चमी	-11.3273
▁कलाकारिता	-11.3274
▁गुजारा	-11.3274
दक्षिण	-11.3277
▁उमेदवार	-11.3278
▁बेरोजगारी	-11.328
▁नागरिकताको	-11.3282
▁दीक्षित	-11.3282
हरूमध्ये	-11.3285
▁घटनापछि	-11.3287
▁ब्लड	-11.329
▁सर्वोत्कृष्ट	-11.3292
▁परियोजनामा	-11.3293
▁विदुर	-11.3294
▁जनप्रतिनिधिहरु	-11.3295
▁नेवारी	-11.3295
▁२०४७	-11.3295
खाले	-11.3299
▁बोलाइएको	-11.3299
▁प्रतिवेदनले	-11.3299
पान	-11.33
▁उनमा	-11.3301
▁जीवनस्तर	-11.3302
▁ओझा	-11.3302
▁सुदूर	-11.3302
▁जिल्लाहरुमा	-11.3302
▁धुवाँ	-11.3304
▁सक्थ्यो	-11.3304
▁मनाएको	-11.3306
▁हाफ	-11.3308
▁प्राथमिकताका	-11.331
▁गन्तव्यमा	-11.3312
▁अनुगमनका	-11.3312
▁महसुल	-11.3313
▁चिनीको	-11.3315
पीडित	-11.3316
▁प्याज	-11.3316
▁समानुपातिकतर्फ	-11.3317
क्षण	-11.3317
▁परिपत्र	-11.3318
▁अनिता	-11.3318
त्यस	-11.3319
▁शरिर	-11.332
▁फाईनल	-11.3324
▁फर्क	-11.3325
▁लगाएतका	-11.3326
?’	-11.3326
▁हुनुभन्दा	-11.3327
▁जेठमा	-11.3328
▁मनसुन	-11.3331
▁प्रतीक्षा	-11.3336
▁भनिन	-11.3336
▁कोसी	-11.3338
▁अव्यवस्थित	-11.3344
▁प्रतिलिपि	-11.3345
▁गन	-11.3345
▁सिटमा	-11.3345
▁बालविवाह	-11.3345
▁कार्यदिशा	-11.3345
▁पू	-11.3347
सिया	-11.3351
▁प्राप्तिका	-11.3351
▁भक्तपुरका	-11.3353
▁बचाउने	-11.3353
ेष्ट	-11.3353
▁बेहोस	-11.3354
बाङ	-11.3354
औ	-11.3354
▁विद्यार्थीहरुको	-11.3355
▁बद्री	-11.3355
▁ल्याब	-11.3356
▁प्रजातिका	-11.3358
▁नेतृत्वलाई	-11.3358
▁अशक्त	-11.3358
▁अन्तर्गतका	-11.3359
▁गोरे	-11.3359
▁पेशामा	-11.3362
▁खिच	-11.3363
ुहोस	-11.3364
र्व	-11.3365
▁आँशु	-11.3365
▁पुरातात्विक	-11.3365
▁लोकमार्ग	-11.3369
▁साहसिक	-11.337
▁विक्रि	-11.3374
▁म्याड्रिड	-11.3376
▁अपलोड	-11.3376
▁नाला	-11.3377
▁ह्यारी	-11.3378
▁कमाण्डर	-11.3382
गर्ने	-11.3384
▁खाडल	-11.3387
▁पृथक	-11.3387
२०७५	-11.3388
▁मण्डला	-11.3389
▁राज्यबाट	-11.3389
▁सिमानामा	-11.339
▁सनम	-11.339
▁वनमा	-11.3391
▁मानेको	-11.3392
▁बन्देज	-11.3394
▁पार्टीहरु	-11.3394
▁मार्	-11.3395
▁म्यानेजमेन्ट	-11.3396
▁दबाव	-11.3397
▁बोतल	-11.3397
▁हिंसाका	-11.3399
▁गरौ	-11.3399
▁देवानी	-11.3402
▁विश्वकर्माले	-11.3402
▁नेपालीहरुलाई	-11.3403
▁आवाजमा	-11.3403
▁बढेसँगै	-11.3404
▁आदर	-11.3407
▁कामी	-11.3407
▁ट्वीट	-11.3407
▁सर्वहारा	-11.3409
▁पूर्वमन्त्री	-11.3414
▁लडाकू	-11.3416
▁२०००	-11.3422
▁हटेको	-11.3423
नेपालमा	-11.3424
▁गन्तब्य	-11.3428
▁छक्क	-11.3428
फे	-11.3429
▁रसायन	-11.343
▁क्लबलाई	-11.3431
▁जिल्लालाई	-11.3433
ः३०	-11.3434
▁स्टाटस	-11.3435
न्छन्	-11.3436
▁तिर्नु	-11.3436
▁लेखनमा	-11.3436
▁भीषण	-11.3439
▁चितुवा	-11.3439
▁टेलिभिजनमा	-11.3439
▁सारेका	-11.3441
पास	-11.3443
▁विकासलाई	-11.3443
▁सम्मेलनले	-11.3443
▁हरिप्रसाद	-11.3444
▁थिईन्	-11.3445
▁केयर	-11.3445
▁दिप	-11.3448
▁ब्रिटिश	-11.3449
▁उहाँहरू	-11.3451
▁पुर्याएका	-11.3452
▁मतले	-11.3452
▁भाका	-11.3453
▁चिनाउन	-11.3454
▁फाउण्डेशन	-11.3454
▁स्टेज	-11.3456
▁समाधानको	-11.3458
ज्ञ	-11.3459
▁गुरुङ्ग	-11.3459
▁उतारचढाव	-11.3459
▁फाल	-11.3461
▁चाँदी	-11.3462
▁मिश्रित	-11.3464
▁विल	-11.3464
▁समाचारपत्र	-11.3465
खेती	-11.3467
▁रानीपोखरी	-11.3469
▁पहुँचमा	-11.347
▁हिड्ने	-11.347
▁वार्ड	-11.3474
▁मड्रिड	-11.3475
▁छोराछोरीलाई	-11.3476
▁अलैंची	-11.348
▁गस्ती	-11.3482
▁सिकाउन	-11.3483
▁महिनामै	-11.3483
▁राष्ट्रले	-11.3483
हुन्छ	-11.3485
▁सहमतिका	-11.3487
▁अर	-11.3487
▁लिंक	-11.3487
▁प्रक्रियाबाट	-11.3487
▁शुक्रबारदेखि	-11.3487
▁तै	-11.3489
▁शताब्दीको	-11.349
▁बारीमा	-11.3491
▁सप्ताह	-11.3493
▁माइ	-11.3494
▁यिनी	-11.3496
▁रोमाञ्चक	-11.3496
▁मनले	-11.3497
▁मातृ	-11.3501
▁०७५	-11.3501
▁चेल्सी	-11.3502
▁मीना	-11.3503
एजेन्सी	-11.3508
▁कलर	-11.3509
र्थ	-11.351
िसकेपछि	-11.3512
हरुसंग	-11.3513
ल्यान्ड	-11.3517
▁विषयका	-11.3521
▁सगुन	-11.3522
▁एचकेनेपाल	-11.3523
▁पत्तो	-11.3523
ुँ	-11.3525
जब	-11.3527
▁मुना	-11.3529
▁काँ	-11.353
▁पुजारी	-11.3531
▁भागेर	-11.3531
▁सन्ध्या	-11.3531
▁रणवीर	-11.3533
▁उपधारा	-11.3534
▁सिद्धि	-11.3536
▁रहन्छन्	-11.3538
▁घटनास्थलमै	-11.3539
नल	-11.3539
▁थालिन्	-11.3539
▁विषयले	-11.354
▁आजकल	-11.354
▁उरुग्वे	-11.3543
▁कौशल	-11.3543
▁विजुली	-11.3544
▁परीक्षार्थी	-11.3544
▁गाउँघरमा	-11.355
▁सद्भावना	-11.355
▁रोयल	-11.3551
▁फेरिएको	-11.3553
▁कोरियोग्राफी	-11.3554
▁दाहिने	-11.3555
▁अस्वीकृत	-11.3555
▁सर्वत्र	-11.3555
जसो	-11.3556
▁मज्जा	-11.3557
▁अंग्रेज	-11.356
▁राखि	-11.356
▁निर्णयले	-11.3561
▁अपराधीलाई	-11.3562
▁नजरमा	-11.3562
▁त्यतिकै	-11.3563
▁राष्ट्रसंघ	-11.3563
▁पल्टन	-11.3564
▁दिसा	-11.3569
छे	-11.357
▁प्रतिक	-11.357
▁नयाँदिल्ली	-11.3572
▁अखबार	-11.3573
ढा	-11.3576
▁पहिरोको	-11.3578
▁इन्च	-11.3581
▁नत	-11.3585
▁रहेपनि	-11.3586
ल्या	-11.3587
▁उभिन	-11.3588
▁२०५२	-11.3589
द्य	-11.359
▁हाराहारी	-11.359
सल	-11.359
▁ड्राइभर	-11.3592
मिल	-11.3592
▁समेट्न	-11.3592
▁पौडी	-11.3595
▁रेखदेख	-11.3597
▁नियन्त्रक	-11.3599
▁आउनुभएका	-11.36
▁विष्टको	-11.36
▁जोडिन	-11.3603
विद	-11.3603
▁बजारीकरण	-11.3604
▁मुटुरोग	-11.3605
ात	-11.3605
▁नविन	-11.3605
▁नजिकिँदै	-11.3606
ौला	-11.3606
▁रेल्वे	-11.3608
▁भोगेको	-11.361
िटी	-11.3611
▁अबस्थामा	-11.3612
▁राहुल	-11.3613
▁धु	-11.3614
▁गल्ली	-11.3616
▁यसतर्फ	-11.3618
▁बढाए	-11.3618
▁क्षेप्यास्त्र	-11.3618
▁नाचगान	-11.3619
हजार	-11.362
▁बलर	-11.3621
▁बिक्रम	-11.3622
▁दिँदैन	-11.3625
▁नदिए	-11.3625
हरुमध्ये	-11.3626
▁बोका	-11.3627
▁शीर्षकको	-11.3628
▁भत्क	-11.363
▁समयावधि	-11.3631
▁राष्ट्रलाई	-11.3632
▁केभी	-11.3634
▁अवतार	-11.3636
▁माक्र्सवाद	-11.3636
▁अपनाउने	-11.3637
रोग	-11.3638
▁भनेकी	-11.3645
▁वाटर	-11.3645
▁व्यवसायको	-11.3646
▁सरकारबीच	-11.3647
हेर	-11.3647
प्	-11.3648
▁सार्वभौमसत्ता	-11.3651
▁जिविस	-11.3651
▁लाम	-11.3655
▁सिने	-11.3659
▁मोटरसाइकलमा	-11.3662
ीएको	-11.3664
▁आदिमा	-11.3665
▁खोले	-11.3665
▁सम्वन्धित	-11.3666
▁कर्मचारीहरू	-11.3666
▁भ्याट	-11.367
▁म्यानचेस्टर	-11.3672
▁आवधिक	-11.3672
▁देउराली	-11.3673
▁निति	-11.3674
▁निकायहरू	-11.3677
▁शान्तिको	-11.3678
▁सडकबाट	-11.3678
▁जुटाउने	-11.368
▁स्वचालित	-11.3683
▁सकिरहेका	-11.3684
▁सुन्दै	-11.3685
▁कतिसम्म	-11.3685
तिहार	-11.3686
▁कथाकार	-11.3688
▁विन	-11.369
▁मधेशवादी	-11.3691
▁ट्र	-11.3691
▁कमाएका	-11.3694
▁मूख्य	-11.3694
पट्टी	-11.3694
▁धुर्मुस	-11.3695
▁रूस	-11.3695
▁दाङमा	-11.3696
थान	-11.3697
▁खेल्दा	-11.3698
▁पार्नुभयो	-11.3699
▁जुट्न	-11.3703
▁अभिषेक	-11.3704
▁अर्गानिक	-11.3705
▁एकतर्फी	-11.3705
लेट	-11.3708
▁मान्छन्	-11.3711
▁उपर	-11.3711
्रि	-11.3713
▁सघाउ	-11.3713
▁अधिग्रहण	-11.3715
▁म्यादी	-11.3717
▁मागेका	-11.3718
▁छातीमा	-11.3719
▁परेमा	-11.3721
स्ता	-11.3722
▁बाँड	-11.3722
▁अभिभावकको	-11.3724
▁तामाकोशी	-11.3726
▁महामारी	-11.3726
खर्क	-11.3728
ठी	-11.3728
▁लौ	-11.3728
▁प्रणालीबाट	-11.3729
▁छुट्याउन	-11.373
जू	-11.3731
▁धिताल	-11.3731
▁अनुदानमा	-11.3732
▁मातृभाषा	-11.3733
▁गौर	-11.3733
▁एकादशी	-11.3734
▁जनगणना	-11.3735
हुँदै	-11.3735
▁राजपाका	-11.3736
▁जनयुद्धको	-11.3736
▁तिमल्सिना	-11.3737
▁हातेमालो	-11.3737
▁छाना	-11.3737
▁उभिएका	-11.3738
▁यमराज	-11.3739
▁प्रतिवाद	-11.3739
▁वेष्ट	-11.3739
▁युवतीको	-11.374
▁कम्पनीसँग	-11.3741
▁नदेखिएको	-11.3744
▁लिन्छन्	-11.3747
▁गइरहेका	-11.3748
▁सीधै	-11.3748
नौं	-11.3748
▁शैलीको	-11.3748
▁फलाम	-11.3748
▁संक्रमणकाल	-11.3748
▁सानु	-11.375
▁नरहने	-11.3752
▁क्रियाशिल	-11.3752
▁लाइभ	-11.3753
नका	-11.3754
▁इन्टरनेटको	-11.3755
▁पहिरोमा	-11.3756
▁पुर्याउँछ	-11.3757
▁प्रबद्र्धन	-11.3758
▁कञ्चनपुरमा	-11.3761
ठूला	-11.3761
▁वर्षायाम	-11.3761
ुहुँदैन	-11.3765
▁पुर्याए	-11.3766
▁कृपा	-11.3769
▁कन्स्ट्रक्सन	-11.3769
▁बिजनेस	-11.377
▁हिमालको	-11.3772
▁सबैजना	-11.3773
▁जमिनको	-11.3774
▁त्यसैलाई	-11.3776
▁नामकरण	-11.3777
▁कष्टकर	-11.3781
▁यती	-11.3782
▁नाकामा	-11.3783
▁जनजाती	-11.3784
▁पुस्ताको	-11.3784
▁वेब	-11.3786
▁कोलकाता	-11.3787
▁वार्ताको	-11.3788
▁अस्	-11.3788
▁जस्ताको	-11.379
▁हर्मोन	-11.3791
िर	-11.3793
▁सम्राट	-11.3794
▁प्रदेशलाई	-11.3797
लक्ष्मी	-11.3798
▁तर्फको	-11.3801
▁जघन्य	-11.3802
▁हालेको	-11.3802
▁प्वाल	-11.3802
▁अन्	-11.3806
▁महाराज	-11.3808
वो	-11.381
▁स्वत	-11.381
▁बनाएपछि	-11.3812
पाटी	-11.3813
▁वाई	-11.3815
▁विष्फोट	-11.3816
सिल	-11.3817
▁व्यवसायीहरू	-11.3817
▁पुर्याउनु	-11.3818
▁जोडीले	-11.382
छौ	-11.3821
▁अवस्थाबारे	-11.3821
▁चौधरीलाई	-11.3821
▁राष्ट्रसंघको	-11.3821
▁उपदफा	-11.3824
्याइ	-11.3825
▁श्वास	-11.3825
▁आकृति	-11.3825
▁घट्न	-11.3826
▁२०६१	-11.3826
०७६	-11.3828
▁मधेसको	-11.3829
▁सहितका	-11.3831
▁शक्तिका	-11.3832
▁सोच्नु	-11.3834
▁बज्राचार्य	-11.3837
▁पाटी	-11.3837
▁सहरको	-11.3839
▁पढे	-11.384
सेन	-11.384
हरी	-11.3841
▁फुड	-11.3844
▁बेड	-11.3844
▁बोलाउने	-11.3845
▁प्रदुषण	-11.3845
▁प्रवृति	-11.3846
▁तनहुँको	-11.3846
▁परिषदको	-11.3849
▁केसीका	-11.3851
▁गर्नुहुने	-11.3853
▁अड्डा	-11.3854
▁छैनौँ	-11.3857
स्टार	-11.386
▁मानबहादुर	-11.3862
▁टहरा	-11.3864
▁मिना	-11.3864
र्ष	-11.3866
▁खेतीयोग्य	-11.3869
▁पाल्ने	-11.387
▁जान्छु	-11.387
▁नेताहरूलाई	-11.3876
▁एमालेलाई	-11.3877
▁हुनबाट	-11.3877
▁पुँजीगत	-11.3878
▁अनेरास्ववियु	-11.3878
▁कँहा	-11.3879
▁अडियो	-11.388
▁अन्दाजी	-11.3882
▁बनि	-11.3882
▁सन्नी	-11.3882
▁ऋतु	-11.3884
▁योगी	-11.3884
▁सक्ला	-11.3885
▁धादिङको	-11.3885
▁वु	-11.3886
▁सदस्यहरुलाई	-11.3888
▁चिठी	-11.3889
▁पठाउनु	-11.3889
▁पुनःसंरचना	-11.389
▁अस्थिर	-11.3891
कले	-11.3891
सेना	-11.3892
याम	-11.3893
▁लागिपरेको	-11.3895
▁मुलक	-11.3895
▁मीन	-11.3897
▁मानिन्छन्	-11.3898
▁हङकङमा	-11.3899
▁मधेसका	-11.39
▁नियामक	-11.39
▁सम्वोधन	-11.39
▁गर्नुभएका	-11.3901
▁हैसियतले	-11.3902
▁लिपि	-11.3905
पुरुष	-11.3906
▁प्रतिको	-11.3909
▁मृतकका	-11.3909
▁दोहा	-11.3911
▁स्तब्ध	-11.3911
▁साथीले	-11.3912
सागर	-11.3912
▁अग्रणी	-11.3912
▁ताली	-11.3912
▁कागजपत्र	-11.3914
▁टुर	-11.3916
स्व	-11.3918
िब	-11.3922
▁पुर्याएर	-11.3922
▁समयका	-11.3922
▁भैंसी	-11.3923
▁२०५९	-11.3925
▁भनिरहेका	-11.3926
▁कानमा	-11.3927
▁धैर्य	-11.3927
▁ल्याइ	-11.3929
्छिन्	-11.393
▁चैतमा	-11.393
▁विजयकुमार	-11.3933
▁समुद्री	-11.3933
▁पूर्वानुमान	-11.3933
▁विहीबार	-11.3933
▁अग्रिम	-11.3934
▁स्वामित्वमा	-11.3934
▁भर्ती	-11.3935
▁मधेसवादी	-11.3937
मिन	-11.3937
विर	-11.3937
▁गौ	-11.3937
ृत	-11.3938
▁दिक्क	-11.3939
▁सतहमा	-11.394
▁आकारको	-11.394
▁गर्नेहरु	-11.3941
▁मुसिकोट	-11.3944
िरहेकी	-11.3945
▁खुर्सानी	-11.3945
▁मनकामना	-11.3945
फी	-11.3947
▁संवत	-11.3947
ार्इ	-11.3948
▁जितेन्द्र	-11.3948
▁ब्यबस्था	-11.395
▁विश्वयुद्ध	-11.3951
िष्ट	-11.3953
▁छिरिङ	-11.3953
▁ब्यानरमा	-11.3955
▁सर्जरी	-11.3955
▁उत्पत्ति	-11.3955
▁सक्रियतामा	-11.3956
▁स्ट्राइकर	-11.3956
▁उत्पादनमूलक	-11.3965
▁कमेन्ट	-11.3965
▁जगेर्ना	-11.3966
▁सामानको	-11.3967
▁चाहेर	-11.3967
▁सदस्यहरुमा	-11.3969
सिक	-11.397
▁दह	-11.3974
▁जमघट	-11.3975
▁निकालेका	-11.3976
▁फुटवल	-11.3978
गीत	-11.3979
▁नपुग्दै	-11.3979
ें	-11.3982
▁चेतनाको	-11.3982
▁चारैतिर	-11.3987
▁महीनामा	-11.3988
▁पोखे	-11.3988
▁जरूरी	-11.3989
▁मोटरसाईकल	-11.3989
▁रेस	-11.3989
▁रुम	-11.3992
▁भारतिय	-11.3992
▁बोरा	-11.3994
▁उभ	-11.3997
▁फेब्रुअरी	-11.3998
मेन	-11.3998
▁बोहराले	-11.3999
▁अघोषित	-11.4
▁प्रचुर	-11.4
▁आँगन	-11.4001
र्य	-11.4004
▁बितेको	-11.4006
▁हेमन्त	-11.4009
▁जनविश्वास	-11.4011
▁चम्चा	-11.4011
ट्	-11.4012
▁इँग्ल्यान्ड	-11.4014
ग्रा	-11.4014
▁दलबीच	-11.4014
▁व्यवसायीहरु	-11.402
▁यातायातका	-11.4022
▁छिर्न	-11.4022
▁डुबेर	-11.4025
▁लेखनु	-11.403
▁हानेर	-11.403
▁थाल्ने	-11.403
▁माथिबाट	-11.4032
▁मतभेद	-11.4034
▁बाल्यकाल	-11.4036
▁कुद	-11.4036
३१	-11.4037
▁विजेताले	-11.4037
▁भनें	-11.4038
▁बिदेशमा	-11.4041
▁उदाहरणीय	-11.4042
▁काङ्ग्रेसका	-11.4042
▁यूएई	-11.4043
▁हान्ने	-11.4044
▁रथ	-11.4044
▁ल्याउँदा	-11.4045
▁कसरत	-11.4045
▁पर्दामा	-11.4049
▁सक्छौँ	-11.4051
▁सुनेपछि	-11.4053
▁कोर	-11.4054
▁सुष्मा	-11.4056
▁तुलाधर	-11.4056
▁ओठ	-11.4059
ट्टा	-11.4059
▁ल्यायो	-11.406
▁जेठो	-11.406
▁भनौं	-11.4061
▁आरोपी	-11.4061
▁चलाउँदै	-11.4066
▁शहिद	-11.4067
३२	-11.4068
▁सकि	-11.4068
▁वजे	-11.4068
▁एनसेल	-11.407
▁फास्ट	-11.407
▁रुसमा	-11.4072
▁आर्यन	-11.4073
▁ठानेर	-11.4075
ाँै	-11.4075
प्रेम	-11.4076
▁मानिसका	-11.4077
शिक्षा	-11.4078
▁विमलेन्द्र	-11.4078
▁कस	-11.408
▁फ्र	-11.408
▁गरिरहनु	-11.4082
▁लोहनी	-11.4082
▁मालिका	-11.4083
▁ठोक	-11.4084
▁उठाए	-11.4084
▁कांग्रेसमा	-11.4087
▁नियति	-11.4089
▁प्रवचन	-11.4089
▁चाँही	-11.409
▁खेतीमा	-11.4092
राई	-11.4094
▁मुसलमान	-11.4094
ाइएका	-11.4094
▁बाजी	-11.4098
▁मन्त्रीहरु	-11.4098
▁वर्षभरि	-11.4099
▁जाती	-11.41
▁निकटतम	-11.4101
लार्ई	-11.4101
साउन	-11.4104
▁माफिया	-11.4109
▁सतर्क	-11.4111
▁रमाईलो	-11.4111
▁नर्भिक	-11.4111
▁व्या	-11.4112
▁वजेट	-11.4113
▁मस्त	-11.4114
▁कार्यशाला	-11.4114
▁लगेका	-11.4115
मित	-11.4115
▁कुराकानीमा	-11.4115
पूर	-11.4116
▁महानगरले	-11.4121
▁विवादका	-11.4123
▁पाकिस्तानमा	-11.4128
शाला	-11.4128
▁व्यक्तिहरुलाई	-11.4128
६५	-11.4132
▁साइ	-11.4134
▁श्राद्ध	-11.4134
▁जोश	-11.4134
धर्म	-11.4137
▁देशहरू	-11.4137
▁कुना	-11.4138
▁सदरमुकाममा	-11.4139
▁ठाउमा	-11.414
▁व्याज	-11.4141
▁बालेर	-11.4144
ुपर्दैन	-11.4145
▁पीडक	-11.4145
▁लैङ्गिक	-11.4145
जय	-11.4145
▁बालाजु	-11.4146
▁व्यवसायीहरुले	-11.4146
▁बायाँ	-11.4147
ये	-11.4149
▁गरियोस्	-11.4153
राजा	-11.4153
▁भत्किएको	-11.4153
▁तुल्याउन	-11.4154
▁सामथ्र्य	-11.4156
▁खेतीपाती	-11.4157
▁चालकले	-11.4157
▁बहाल	-11.4157
▁गुमाए	-11.4159
▁दिनलाई	-11.416
▁लिइने	-11.416
▁प्रशस्तै	-11.4161
▁गाउँबाट	-11.4162
▁डिएनए	-11.4162
▁टेक्नोलोजी	-11.4168
▁पूर्वअध्यक्ष	-11.4171
▁शक्तिलाई	-11.4176
▁शिशिर	-11.4179
र्फ	-11.4182
▁सम्पदाको	-11.4184
▁खेलकुदमा	-11.4188
▁भुक्तान	-11.419
▁डन	-11.419
▁शीघ्र	-11.419
▁हराए	-11.419
▁हुनुमा	-11.419
▁वीर्य	-11.4193
▁तिरेको	-11.4195
स्ट्र	-11.4195
▁गराउनुभएको	-11.4197
▁संस्थाहरुको	-11.4198
▁अस्तव्यस्त	-11.4198
▁अन्योलमा	-11.42
▁रेट	-11.4201
▁अवधिभर	-11.4202
रै	-11.4203
लुङ	-11.4204
▁संघर्षको	-11.4204
▁हटाइएको	-11.4205
▁सिन	-11.4205
▁तिनीहरु	-11.4206
▁सघन	-11.4207
क्या	-11.4209
२०१८	-11.421
ग्र	-11.4213
▁ब्रिटिस	-11.4213
▁निष्ठा	-11.4213
▁सेल्फी	-11.4216
▁व्यवस्थाले	-11.4217
▁पुलिसले	-11.4219
▁परिवारसँग	-11.4219
▁तान	-11.4222
▁फो	-11.4225
बिर	-11.4227
वेल	-11.4227
▁चाह	-11.4228
▁घुम्ने	-11.4228
▁कानुनमा	-11.4229
तर्फबाट	-11.4232
▁सिता	-11.4233
▁बहन	-11.4235
▁दार्शनिक	-11.4236
▁व्यङ्ग्य	-11.4236
▁हाले	-11.4237
▁कल्याणकारी	-11.4237
▁कोणबाट	-11.4237
▁भएदेखि	-11.4238
पछिको	-11.4238
▁रिपोर्टर्स	-11.4238
▁लेख्दै	-11.4239
▁बर्षे	-11.4242
▁हुँदैछन्	-11.4242
▁सोंच	-11.4242
▁तटबन्ध	-11.4243
▁इञ्जिनियर	-11.4246
नीति	-11.4248
▁गर्नैपर्छ	-11.4248
▁बङ्गाल	-11.4249
▁अनुचित	-11.4249
▁पेशागत	-11.425
▁रोजगारमा	-11.4252
िले	-11.4253
▁अस्ति	-11.4254
▁राख्नुभयो	-11.4255
हरूबीच	-11.4256
▁उठ्छ	-11.4256
▁सर्किट	-11.4258
▁आन्दोलित	-11.4259
▁उत्पीडन	-11.4261
▁मुग्लिन	-11.4263
▁जड	-11.4265
▁संस्कृतिलाई	-11.4266
▁सम्बन्धका	-11.427
▁खानपिन	-11.427
▁कुश	-11.4271
▁पुनको	-11.4272
भू	-11.4273
▁पाईने	-11.4274
▁पैसाले	-11.4277
▁दार्जीलिङ	-11.4281
▁फेरबदल	-11.4281
▁बेच	-11.4281
▁छुटेका	-11.4282
▁फिल्मलाई	-11.4283
▁प्रतिष्ठानमा	-11.4284
▁आना	-11.4285
▁घेरामा	-11.4287
▁गुमाउनु	-11.4292
्के	-11.4292
▁उदघाटन	-11.4293
▁फलफुल	-11.4293
छौँ	-11.4295
▁बुढी	-11.4297
▁ट्रान्सफर	-11.4297
▁दृष्य	-11.4299
ुपर्दा	-11.4302
निकट	-11.4302
▁एघार	-11.4303
▁उनिहरुको	-11.4303
▁चिनिया	-11.4303
▁चुपचाप	-11.4304
▁एकलौटी	-11.4304
ाली	-11.4305
▁नुवाकोटको	-11.4306
श्र	-11.4307
▁अधि	-11.4307
▁टाइप	-11.4309
▁ताकि	-11.431
▁गर्दागर्दै	-11.431
ुर	-11.4312
▁तिवारीले	-11.4314
छि	-11.4315
▁पाठ्यपुस्तक	-11.4316
▁परमप्रभु	-11.4316
▁कच्ची	-11.4316
नगरपालिका	-11.4318
▁सिसा	-11.4319
▁सिरहाको	-11.4319
▁हर्कत	-11.4319
▁ब्यवसायी	-11.4321
▁एकाध	-11.4321
▁पोखरीमा	-11.4321
▁मानन्धरले	-11.4322
सडक	-11.4323
▁व्यक्तिहरुले	-11.4326
▁सोम	-11.4327
▁फाईदा	-11.4327
▁हराएर	-11.4327
▁भइरहँदा	-11.4328
धर	-11.4328
▁पकेट	-11.4329
▁स्क्रिन	-11.4329
▁अक्सिजन	-11.4329
कति	-11.433
▁देशभरि	-11.4331
▁स्प	-11.4331
▁मागेर	-11.4332
▁दिइनेछ	-11.4335
ङले	-11.4335
▁बिउ	-11.4338
▁कुकुरको	-11.434
ारा	-11.434
▁भन्नुपर्दा	-11.4341
पनी	-11.4341
▁परमेश्वरले	-11.4343
▁छालाको	-11.4343
▁गर्नेछु	-11.4344
शास्त्र	-11.4344
बीचमा	-11.4347
▁पाउँदै	-11.435
▁मोबाईल	-11.435
▁निस्केको	-11.4352
▁क्षती	-11.4352
▁संविधानलाई	-11.4356
ुम	-11.4357
▁पंक्ति	-11.4357
▁कामहरू	-11.4359
▁धनबहादुर	-11.4361
▁सिकेको	-11.4361
▁सरदर	-11.4362
▁रह	-11.4362
र्दै	-11.4363
तिमी	-11.4364
▁अपराधको	-11.4364
▁खोजिरहेका	-11.4364
त्ता	-11.4364
▁दावा	-11.4364
▁बसको	-11.4365
शमशेर	-11.4366
न्थ्यो	-11.4369
▁आवश्यकताअनुसार	-11.4369
▁यसपाली	-11.4371
▁गर्दछन	-11.4371
▁बर्तमान	-11.4373
▁छुटेको	-11.4373
▁बर्षदेखि	-11.4374
ुहुन्न	-11.4374
▁स्टाफ	-11.4374
▁चलिरहेका	-11.4375
▁भ्यान	-11.4376
ल्लो	-11.4377
▁योजनाका	-11.4378
▁धर्मनिरपेक्षता	-11.4378
▁गल	-11.4379
▁सातदोबाटो	-11.4385
▁शिवाकोटी	-11.4385
▁इनरुवा	-11.4385
▁त्यसैमा	-11.4385
▁रिचार्ज	-11.4385
▁लाग्दछ	-11.4385
▁मञ्जु	-11.4388
▁ताज	-11.4389
हन	-11.4389
▁हकको	-11.4391
अमेरिका	-11.4391
▁दुईपटक	-11.4392
▁गुनासा	-11.4392
▁आयातमा	-11.4392
▁संशोधनका	-11.4392
▁निकाले	-11.4394
▁पाउनेछ	-11.4395
▁परेकाले	-11.4395
▁विधेयकको	-11.4395
▁जंगली	-11.4396
▁जगतमा	-11.4396
▁आशीर्वाद	-11.4396
▁छाडा	-11.4398
धाम	-11.4401
▁थालियो	-11.4401
▁फस	-11.4401
नियम	-11.4403
▁मतदातालाई	-11.4405
▁तु	-11.4406
▁लम्बाइ	-11.4406
▁पुरस्कारको	-11.4406
▁बागमती	-11.4408
▁सर्वेन्द्र	-11.4409
▁स्कुलको	-11.4409
▁बर्	-11.4412
▁निकायहरु	-11.4412
▁गुण्डा	-11.4412
▁बंगलादेशमा	-11.4412
▁बाजे	-11.4413
िप	-11.4416
▁जोगिन	-11.4417
▁क्षमा	-11.4418
▁आशङ्का	-11.4419
▁प्रतिलिटर	-11.4419
▁मुसहर	-11.442
▁लुकेको	-11.4421
▁भइसके	-11.4423
्थिन्	-11.4425
▁ल्याइने	-11.4425
▁गइ	-11.4427
बाल	-11.443
▁गतिशील	-11.443
▁पप्पु	-11.4431
▁चलान	-11.4431
▁प्रेमिका	-11.4433
ाैं	-11.4434
▁एकताबद्ध	-11.4436
▁प्रतिकार	-11.4437
साल	-11.4437
पहिलो	-11.4438
▁आहार	-11.4438
▁हँुदैन	-11.4441
▁कवितामा	-11.4441
▁धनगढीमा	-11.4443
▁माध्यममा	-11.4445
▁रुपन्देहीको	-11.4445
▁भट्टराईलाई	-11.4447
▁साताअघि	-11.4448
▁अनुभूत	-11.4449
▁ब्यवसाय	-11.4452
▁घटस्थापना	-11.4454
▁तालाबन्दी	-11.4454
▁नलिई	-11.4454
▁प्रतिनिधिहरु	-11.4455
▁नपुग्ने	-11.4456
▁हडताल	-11.4456
▁विश्वसनीय	-11.4456
▁शीतल	-11.4457
▁शिक्षालय	-11.4461
▁उद्योगका	-11.4465
▁तोड्न	-11.4465
▁रिक्सा	-11.4467
िदिए	-11.4468
▁संगत	-11.4468
▁युवतीले	-11.4469
▁कार्कीलाई	-11.4469
▁रगतमा	-11.4473
▁प्रचलनमा	-11.4475
▁सोध्ने	-11.4476
▁सिपाही	-11.4477
▁वयस्क	-11.4477
▁त्यसभन्दा	-11.4479
टेक	-11.4479
▁ल्याउँदै	-11.4479
▁तिमि	-11.4481
जिल्ला	-11.4483
▁रैथाने	-11.4489
▁विनियोजित	-11.4489
▁पुरातत्व	-11.449
▁बन्नुपर्छ	-11.4491
▁कुलमान	-11.4493
▁रेलको	-11.4493
▁हरुको	-11.4493
▁महल	-11.4493
▁हुन्छौं	-11.4494
▁सावधानी	-11.4494
मधेश	-11.4495
▁बाँच	-11.4496
▁अवसरको	-11.4498
▁कान्छो	-11.4501
▁दुतावास	-11.4501
▁ल्याउँछ	-11.4501
▁मुखबाट	-11.4501
▁फेर्ने	-11.4501
अल	-11.4503
▁अवगत	-11.4505
▁अत	-11.4506
पट	-11.4508
▁विहे	-11.4508
▁दुलाल	-11.4509
▁गे	-11.4509
▁खानाको	-11.4513
▁बोल्नु	-11.4515
▁किनमेल	-11.4516
▁नाकाबन्दीको	-11.4522
▁फर्के	-11.4522
▁२०६०	-11.4523
▁अवैधानिक	-11.4525
▁दमकल	-11.4526
स्य	-11.4526
▁प्रभावमा	-11.4527
▁विस्तारित	-11.4529
▁डाक्टरको	-11.4532
▁युवतीहरु	-11.4534
▁दिलीप	-11.4535
▁म्यासेज	-11.4536
▁पातलो	-11.4538
▁टाँस	-11.4539
▁चालकको	-11.4539
▁शृंखला	-11.454
▁स्वास्थ्यको	-11.4541
▁नराख्ने	-11.4541
ठो	-11.4544
▁गर्नेगरी	-11.4545
▁मितिमा	-11.4546
▁स्वीडेन	-11.4547
▁अर्चना	-11.4549
▁जोमसोम	-11.455
▁पत्रकारले	-11.4553
▁भुटानी	-11.4554
▁अक्षय	-11.4559
▁विश्वासको	-11.4559
▁मेकअप	-11.4559
▁कोशिस	-11.4559
▁रमणीय	-11.456
▁दम्भ	-11.456
▁घर्तीले	-11.456
▁छाक	-11.4563
▁मानिसहरूलाई	-11.4569
▁दाबेदार	-11.4571
▁स्रोतसाधन	-11.4572
▁सडकका	-11.4573
▁अफिसमा	-11.4573
▁भीमसेन	-11.4575
रात	-11.4575
▁किराती	-11.4575
▁संस्करणमा	-11.4576
▁मिलान	-11.4577
▁जिल्लाकै	-11.4581
▁खारेजी	-11.4582
▁दर्जा	-11.4583
▁मतपेटिका	-11.4583
▁विर्तामोड	-11.4583
▁वीरगंज	-11.4583
▁जनमोर्चा	-11.4583
▁चलाइएको	-11.4584
▁झि	-11.4584
भार	-11.4591
▁डाइ	-11.4591
▁फागुनमा	-11.4591
▁मुलुककै	-11.4592
▁शङ्का	-11.4595
▁खड्ग	-11.4595
▁बाइबल	-11.4595
▁विश्राम	-11.4595
▁तबसम्म	-11.4596
▁जनादेश	-11.4597
▁तलमाथि	-11.4598
▁आमाबाबु	-11.4599
▁करेन्ट	-11.4599
▁हारेर	-11.46
▁हानेको	-11.4602
ज्ञान	-11.4602
▁मैनालीले	-11.4603
▁बह	-11.4608
▁युवतीलाई	-11.4609
▁फ्रान्सका	-11.4614
▁वर्षमान	-11.4615
घा	-11.4615
ँदैन	-11.4615
▁घटनाहरू	-11.4616
▁निर्णयलाई	-11.4618
न्डर	-11.4618
लाइट	-11.462
▁गौचन	-11.4621
▁घण्टासम्म	-11.4622
▁अनुसन्धानबाट	-11.4623
▁लेनदेन	-11.4625
▁हुनासाथ	-11.4627
▁काफ्लेले	-11.4628
▁मेन	-11.4636
▁प्रवासमा	-11.4638
▁सत्यता	-11.4639
▁लस	-11.4641
याएर	-11.4642
न्दा	-11.4642
▁सुस्ता	-11.4643
ज्	-11.4643
▁अज	-11.4643
िद	-11.4644
्छौँ	-11.4645
▁बित्यो	-11.4645
▁कारबाहीमा	-11.4645
विश्व	-11.4647
▁मस्को	-11.465
उप	-11.4652
दत्त	-11.4653
▁दुर्व्यवहार	-11.4654
▁थकाली	-11.4654
▁दुईतिहाइ	-11.4655
तापूर्वक	-11.4655
कालिन	-11.4659
▁थाल्छन्	-11.4659
्की	-11.4662
▁मृत्युदण्ड	-11.4662
▁बढेकाले	-11.4662
▁सर्वाेच्च	-11.4665
▁सांगठनिक	-11.4665
▁शाहरुख	-11.4666
▁भाग्यमानी	-11.4666
▁सेक्युरिटी	-11.4666
▁केन्द्रलाई	-11.4666
▁सेयरधनी	-11.4666
▁रावण	-11.4666
▁विचारधारा	-11.4668
खो	-11.4671
▁घरहरु	-11.4671
▁मारिएको	-11.4671
▁तिब्बती	-11.4672
▁मौरी	-11.4673
नामा	-11.4674
▁सीट	-11.4679
▁लामालाई	-11.468
▁यात्रुले	-11.468
▁श्रीमतीले	-11.4682
र्द	-11.4684
▁बिदाइ	-11.4685
▁प्रतिनिधिले	-11.4688
▁पटकसम्म	-11.4689
▁सौभाग्य	-11.4689
तम	-11.4692
▁मानिसहरूको	-11.4693
▁छाया	-11.4696
▁माक्र्सवादी	-11.4696
ध्या	-11.4696
▁अस्पताललाई	-11.4698
नन	-11.4699
▁मनसाय	-11.4699
▁जोङ	-11.4701
▁बिद्युत	-11.4701
▁रेफ्री	-11.4701
▁धागो	-11.4702
▁भइरहे	-11.4702
▁मजा	-11.4703
▁मानेका	-11.4703
▁पस्न	-11.4704
▁घिउ	-11.4704
▁सांसद्	-11.4704
▁निक	-11.4706
▁भत्काउन	-11.4711
▁बिट	-11.4714
▁ट्र्याक	-11.4714
▁अस्पतालबाट	-11.4714
▁खुद्रा	-11.4714
▁इच्छाशक्ति	-11.4714
▁अनुसन्धानले	-11.4715
▁पढ्नुस्	-11.4716
▁ट्वीटर	-11.4716
▁वृद्धवृद्धा	-11.4718
▁फर्केपछि	-11.4718
▁आएकाले	-11.4719
▁पान	-11.4721
▁सिग्देल	-11.4723
जनता	-11.4725
▁महाभियोग	-11.4725
▁हातहतियार	-11.4725
▁भोगेका	-11.4726
▁केबलकार	-11.4726
प्प	-11.4728
▁साख	-11.4728
▁निर्णयहरु	-11.4729
▁क्लास	-11.4729
▁पार्कमा	-11.4729
▁२०५१	-11.4729
▁आरक्ष	-11.473
▁लुकाउन	-11.4731
▁अर्थपूर्ण	-11.4732
▁झुक	-11.4732
▁क्वा	-11.4736
र्भ	-11.4736
▁सञ्चय	-11.4737
▁जमुना	-11.4737
▁बालबच्चा	-11.4737
▁रुचाउने	-11.474
▁प्रक्रियाको	-11.474
▁जिस्क	-11.474
▁स्वीकार्य	-11.4741
्प	-11.4745
▁तेरो	-11.4745
▁दृष्टान्त	-11.4749
▁सांसदको	-11.4749
▁लाभदायक	-11.4749
ुन्जेल	-11.4751
▁सरेको	-11.4751
▁क्षेत्राधिकार	-11.4752
▁घिसिङले	-11.4753
▁मानवता	-11.4753
▁थाम	-11.4754
▁टिक्न	-11.4756
▁क्षतिको	-11.4758
▁हराउने	-11.4759
ध्य	-11.476
▁आसपासमा	-11.476
▁पुण्य	-11.476
क्ट	-11.4761
▁सुजन	-11.4761
▁ओगटेको	-11.4761
▁अर्डर	-11.4762
▁चिनाउने	-11.4762
▁देख्नु	-11.4762
▁किराँत	-11.4764
फु	-11.4764
दन	-11.4765
▁विमानमा	-11.4766
▁बच्चाहरु	-11.4766
▁क्यानाडा	-11.4767
▁सुनील	-11.4769
▁अफिसर	-11.4772
क्षेत्रमा	-11.4773
खबर	-11.4773
▁रमाउन	-11.4776
▁सम्हालेका	-11.4776
▁काठको	-11.4777
▁विमला	-11.4777
▁रहित	-11.4779
▁श्रीमानको	-11.4781
▁महानगरको	-11.4781
▁योजनाबद्ध	-11.4783
2	-11.4783
चित्र	-11.4784
▁रुपैँया	-11.4785
▁ललितपुरमा	-11.4785
▁निन्द्रा	-11.4786
▁गुणात्मक	-11.4788
▁तोकेर	-11.4789
▁सूचि	-11.479
▁खनालको	-11.4792
▁थिइनँ	-11.4792
▁दर्जनौँ	-11.4792
▁प्रान्तमा	-11.4793
▁२००५	-11.4793
६६	-11.4794
िएन	-11.4796
▁अर्थशास्त्र	-11.4796
हरुबीच	-11.4797
▁व्यहोरा	-11.4797
▁ओमप्रकाश	-11.4798
्लो	-11.48
▁२०५६	-11.48
▁सिमरा	-11.4801
र्ज	-11.4803
थियो	-11.4804
▁खाँदै	-11.4808
▁दिवसीय	-11.481
▁पदाधिकारीले	-11.4811
▁विश्वभरका	-11.4811
▁एयरको	-11.4812
▁दमौली	-11.4814
▁बलिया	-11.4816
▁मेवा	-11.4817
मह	-11.4818
▁वक्ता	-11.4818
▁नर्सरी	-11.4818
▁शव्द	-11.4819
▁भातृ	-11.482
ीङ	-11.4821
▁अधिनायकवाद	-11.4821
▁भाषालाई	-11.4822
▁उहाँहरुको	-11.4823
▁कुलपति	-11.4826
▁जितेकी	-11.4828
▁हलो	-11.4828
▁११०	-11.4833
▁तालको	-11.4833
▁अभिनित	-11.4833
सह	-11.4834
▁तिनीहरूको	-11.4834
▁सोमबारदेखि	-11.4834
▁आयोजनाबाट	-11.4835
▁मर्कामा	-11.4839
सम्ममा	-11.4841
▁वर्गमा	-11.4841
सरी	-11.4841
▁सापेक्ष	-11.4842
▁मार्फत्	-11.4843
▁रिमाल	-11.4843
▁अभिव्यक्त	-11.4843
▁बढावा	-11.4846
▁युक्त	-11.4847
▁हुल	-11.4848
▁बोर्डमा	-11.4848
▁कम्पनीहरुले	-11.4851
▁निर्वाचनबाट	-11.4852
संहिता	-11.4852
▁महिमा	-11.4856
▁खलंगा	-11.4857
▁सम्हाल्न	-11.4858
▁धरोहर	-11.4858
▁सम्मेलनका	-11.4859
▁मानिसहरुलाई	-11.4859
▁रैछ	-11.486
▁लिला	-11.486
▁उद्यमशीलता	-11.4861
▁बुबाको	-11.4862
▁सर्ब	-11.4862
ाउछ	-11.4863
▁थपिने	-11.4866
▁छुन	-11.4866
▁अनुशासित	-11.4869
▁आधारभुत	-11.487
▁पाउण्ड	-11.4871
▁प्राज्ञ	-11.4871
▁मायाको	-11.4872
▁रहस्यमय	-11.4874
▁फ्लु	-11.4874
▁राखियो	-11.4875
त्ती	-11.4879
▁गरिरहे	-11.488
अन्तर्गतको	-11.488
▁सुडान	-11.4882
ल्ली	-11.4882
▁छँदैछ	-11.4882
▁बैङ्किङ	-11.4882
▁टेकबहादुर	-11.4884
ध्वज	-11.4885
▁सेवक	-11.4886
▁अमित	-11.4886
▁जन्मस्थल	-11.4888
▁कार्यसूची	-11.489
ँड	-11.4893
▁पानीजहाज	-11.4894
▁सूर्यको	-11.4894
यस्तो	-11.4894
▁इभेन्ट	-11.4894
९०	-11.4895
▁फाराम	-11.4895
▁मानी	-11.4896
▁वढ	-11.4896
▁मुक्तक	-11.4901
▁सकस	-11.4904
▁शिक्षामन्त्री	-11.4905
▁प्रगतिको	-11.4906
▁माध्यामिक	-11.4906
▁लेनिन	-11.4906
▁खबरदारी	-11.4907
▁मनग्य	-11.4907
▁किसानहरू	-11.4908
पात	-11.491
▁पर्वलाई	-11.491
▁बुझाउनु	-11.491
▁कठिनाई	-11.4911
▁साक्षर	-11.4911
▁जातजाति	-11.4912
▁ब्याग	-11.4912
▁तल्ला	-11.4913
▁वित	-11.4915
▁लज	-11.4916
▁दशरथ	-11.4916
▁राजभण्डारी	-11.4917
▁लुटपाट	-11.4918
▁रातभर	-11.4918
▁कृपया	-11.4918
▁ब्यानर	-11.4919
▁योगेश	-11.492
्सको	-11.4923
▁कार्यन्वयन	-11.4925
▁सुधार्न	-11.4931
▁२०५४	-11.4933
शो	-11.4934
▁युवाहरुले	-11.4934
▁खानको	-11.4935
▁तिलोत्तमा	-11.4942
▁तैनाथ	-11.4943
▁ठान्छन्	-11.4944
▁!’	-11.4945
ेण्ट	-11.4946
टिक	-11.4949
जीत	-11.495
▁ठेकेदारले	-11.495
▁खसेर	-11.4951
▁कुखुराको	-11.4951
▁तान्न	-11.4952
ब्र	-11.4953
▁हुनेछैन	-11.4954
▁मादक	-11.4955
ंदै	-11.4955
▁असहयोग	-11.4956
▁भनेँ	-11.4956
▁मञ्चका	-11.4959
िनुपर्ने	-11.4961
▁पाचन	-11.4962
▁जाली	-11.4962
▁फर्केको	-11.4962
▁खन्ने	-11.4963
▁अध्याय	-11.4964
▁२००३	-11.4965
▁पत्रिकाले	-11.4968
▁हब	-11.4968
▁अपनाएको	-11.4968
खण्ड	-11.4969
▁लुकाएर	-11.497
▁लिक	-11.4975
▁डोरी	-11.4979
▁सुनाउँदै	-11.4979
▁फितलो	-11.4979
▁सुवर्ण	-11.4979
▁बर्दिवास	-11.4979
▁त्रसित	-11.498
▁बनाइरहेको	-11.498
▁फ्रिज	-11.4982
▁युवाहरू	-11.4982
▁लाग्छन्	-11.4983
▁कुकुरलाई	-11.4986
▁खुबै	-11.4988
▁चाँगुनारायण	-11.4991
▁जीवनयापन	-11.4991
▁विद्यार्थीका	-11.4991
▁जता	-11.4992
▁बाँस्कोटाले	-11.4993
▁भेटी	-11.4993
▁यथार्थमा	-11.4993
▁स्वयम	-11.4993
िक्स	-11.4994
▁चित्रकला	-11.4994
▁सीसी	-11.4996
रहेछ	-11.4997
▁जगमा	-11.5
▁मदत	-11.5
▁लिइरहेका	-11.5002
▁इस्लाम	-11.5002
▁गफगाफ	-11.5003
६८	-11.5005
▁न्यायका	-11.5006
▁दिईएको	-11.5006
▁सातवटा	-11.5006
▁वीपी	-11.5006
▁छोएको	-11.5008
▁नाथ	-11.5008
▁तपस्या	-11.5016
▁अप्रेसन	-11.5016
▁गाबिस	-11.5016
▁क्विन्टल	-11.5016
▁संजय	-11.5017
▁फेशन	-11.5017
▁प्रवद्र्धनका	-11.5019
▁टोलि	-11.5019
▁खोजिरहेको	-11.5019
वादको	-11.502
शान्ति	-11.5022
▁सातामा	-11.5024
▁हारेको	-11.5024
▁युट्युबमा	-11.5025
▁पहिरोका	-11.5027
वाई	-11.5028
▁हिँडेर	-11.5028
▁पारा	-11.5029
▁सुनसान	-11.503
▁गाएको	-11.503
▁सादा	-11.503
नेस	-11.5031
▁ग्रिन	-11.5032
▁घटाएर	-11.5032
▁काभ्रेको	-11.5034
ालाई	-11.5036
▁बर्मा	-11.5039
▁अर्बौं	-11.504
▁धौलागिरि	-11.504
▁सिंचाई	-11.504
▁त्य	-11.5041
▁कर्मचारीहरुको	-11.5041
▁वर्ल्ड	-11.5041
▁अभिन्न	-11.5042
▁पुष	-11.5044
▁लडाई	-11.5044
▁पाई	-11.5044
▁दाहाललाई	-11.5045
▁बगर	-11.5046
▁थिईन	-11.505
▁गर्	-11.5052
▁प्रिन्सिपल	-11.5053
▁झोलुङ्गे	-11.5053
सम्	-11.5053
▁उनिहरुले	-11.5055
▁गरिबीको	-11.5058
▁दौडमा	-11.5058
ुद	-11.5059
▁क्यु	-11.5062
▁तोड	-11.5063
▁बारी	-11.5064
▁धावनमार्ग	-11.5065
▁ओमान	-11.5066
▁युवायुवती	-11.5066
्दैनन्	-11.5066
▁चाँदनी	-11.5066
▁कोषबाट	-11.5067
▁हिल	-11.5068
▁आरोपित	-11.5069
झै	-11.507
▁एरिया	-11.5071
▁शुक्लाफाँटा	-11.5077
▁परिचालित	-11.5078
▁क्याम्पसको	-11.5078
▁नभएपनि	-11.5079
▁अम	-11.508
▁अधिकारीका	-11.5081
▁लडेका	-11.5082
बजारमा	-11.5083
ज्ज	-11.5084
▁बुझ्दै	-11.5085
▁सोनाम	-11.5085
मेट	-11.5087
▁राखेपछि	-11.509
▁नाजुक	-11.509
▁फूलपाती	-11.509
▁बेल्ट	-11.5091
▁टायर	-11.5091
▁बिजुलीको	-11.5094
▁पाकिस्तानले	-11.5094
▁समितिबाट	-11.5095
▁द्वन्द्वको	-11.5095
▁नीतिलाई	-11.5096
▁दशैंमा	-11.51
▁ध्वनि	-11.5102
▁बदला	-11.5102
▁डेस्क	-11.5104
▁सामानहरु	-11.5105
▁तालिमको	-11.5105
▁आउला	-11.5106
्से	-11.5107
▁वली	-11.5108
श्वर	-11.5108
▁जितमा	-11.511
▁रोजेको	-11.511
▁सचिवालयमा	-11.5112
▁पक्षबीच	-11.5112
▁भ्रातृ	-11.5114
०६	-11.5115
▁रङ्गशाला	-11.5115
▁प्राइभेट	-11.5115
▁प्रवृत्तिले	-11.5115
▁अनुमानित	-11.5116
▁आफूहरुको	-11.5116
▁आईरहेको	-11.5116
▁कतारको	-11.5117
▁गरिएपछि	-11.5118
▁कार्यहरू	-11.5118
▁चौपाया	-11.5118
▁त्यत्ति	-11.5119
▁जौ	-11.512
▁बसिरहेको	-11.512
▁राजपाले	-11.512
कृ	-11.5121
▁नामका	-11.5125
▁आगन्तुक	-11.5127
▁मझौला	-11.5127
▁गुप्तचर	-11.5129
▁ब्रह्म	-11.513
ाइने	-11.513
▁एकैसाथ	-11.5132
▁नहुँदै	-11.5134
▁पहाडको	-11.5136
रानी	-11.5137
▁सँ	-11.5137
▁बाँड्ने	-11.5137
▁निर्देश	-11.5137
▁रुघाखोकी	-11.5139
▁इन्स्टिच्युट	-11.5139
▁ज्वाला	-11.514
▁मिन	-11.5141
▁जंगबहादुर	-11.5142
▁भेटे	-11.5142
▁परिपक्व	-11.5144
▁स्थलको	-11.5146
▁प्रतिक्षा	-11.515
▁प्रयोगकर्ताले	-11.515
▁ह्वाइट	-11.5152
▁नेत्रविक्रम	-11.5152
▁हाँस्य	-11.5153
▁त्यती	-11.5153
सरकारी	-11.5155
▁वर्षमै	-11.5157
संस्कृति	-11.5162
▁पन	-11.5164
▁आफुहरुले	-11.5164
▁पुर्वाधार	-11.5165
▁स्वकीय	-11.5165
▁विप्रेषण	-11.5165
ांग	-11.5167
▁गीति	-11.5168
▁नभै	-11.517
ाउँछु	-11.5174
▁२००२	-11.5174
▁परा	-11.5175
र्इ	-11.5176
चौ	-11.5176
▁जून	-11.5177
▁तामाङलाई	-11.5177
▁२०३०	-11.5178
▁छाड	-11.5179
▁सकेपछि	-11.518
▁लगायो	-11.518
३३	-11.5182
▁उहाँहरूले	-11.5182
▁प्रजाति	-11.5182
▁मनाएका	-11.5185
▁पृथ्वीको	-11.5188
▁दक्षिणमा	-11.5188
▁घो	-11.5189
▁तारिफ	-11.519
▁कहिलेकाहीं	-11.5191
७१	-11.5192
गं	-11.5194
संघ	-11.5195
प्रसार	-11.5195
छोरी	-11.5196
▁वढी	-11.5197
▁झर्ने	-11.5198
▁पहिलोपल्ट	-11.52
▁माविमा	-11.5202
▁गिलास	-11.5202
▁नवनियुक्त	-11.5202
जिन	-11.5205
▁परिमाण	-11.5207
▁निषेधित	-11.5207
▁कोच	-11.5208
▁विकले	-11.5211
▁सहयोगले	-11.5211
▁बुझे	-11.5212
▁आँगनमा	-11.5214
▁बुलेट	-11.5214
्याङ	-11.5214
▁प्रोफेसर	-11.5214
▁छरितो	-11.5215
▁सर्भे	-11.5215
▁६००	-11.5216
नेछ	-11.5217
भए	-11.5224
▁मनिषा	-11.5225
▁थेग्न	-11.5226
▁गर्नेहरू	-11.5227
▁अन्सारी	-11.5227
▁प्रदर्शनकारी	-11.5228
▁होटलको	-11.5228
▁बाढीका	-11.5228
▁फिल्ड	-11.5228
▁कार्यका	-11.523
▁हिउँदमा	-11.5231
▁मजदुरी	-11.5237
▁फसेका	-11.5237
▁बलराम	-11.5237
▁यसबीचमा	-11.524
▁नियन्त्रित	-11.524
▁बलिउडका	-11.5241
▁सोध्दा	-11.5241
▁अस्त्र	-11.5242
▁सम्भवत	-11.5242
▁राइ	-11.5245
▁सम्झन	-11.5245
▁श्र	-11.5246
▁नेट	-11.5246
▁हिसाबमा	-11.5248
▁बजेबाट	-11.5252
▁अन्धविश्वास	-11.5252
▁रोयल्टी	-11.5252
▁लगत	-11.5252
▁फूटबल	-11.5253
▁भरिपूर्ण	-11.5254
▁लिगा	-11.5256
▁राजतन्त्रको	-11.5257
▁हटाएको	-11.5259
▁घण्टामा	-11.5259
▁स्वार्थका	-11.526
▁शोमा	-11.5264
विज्ञ	-11.5264
▁बिरालो	-11.5265
▁शशांक	-11.5265
▁ब्रिटेन	-11.5265
▁लिलाम	-11.5266
5	-11.5267
▁स्तरिय	-11.5272
मधेस	-11.5273
▁देखाई	-11.5274
▁सकिनँ	-11.5274
▁शिशुको	-11.5277
▁देखिएकाले	-11.5279
▁मोक्तान	-11.528
▁राजीव	-11.528
▁बाराको	-11.5282
लामा	-11.5283
▁पार्यो	-11.5286
▁प्रतियोगी	-11.5288
▁च्याम्पियनसिपमा	-11.5288
▁अनिश्चित	-11.529
▁जीविकोपार्जन	-11.529
▁सेकेण्ड	-11.5291
▁सुदृढीकरण	-11.5291
▁ब्ल्याक	-11.5292
▁हिड्न	-11.5292
▁नशा	-11.5293
▁नाउँ	-11.5293
▁गरायो	-11.5294
▁मेरुदण्ड	-11.5295
▁रेलवे	-11.5296
▁तस्तै	-11.5298
▁भित्ता	-11.5299
▁व्यवहारले	-11.5303
▁थापामगर	-11.5304
▁थपेको	-11.5305
▁पिट	-11.5305
गाड	-11.5305
▁डिल	-11.5306
▁पृष्ठभूमिमा	-11.5306
▁आक्रमणको	-11.5306
गाई	-11.5307
▁बताएपछि	-11.5308
▁बिन	-11.5309
▁खर्चेर	-11.5309
▁भ्रष्टाचारी	-11.5312
▁नवजात	-11.5316
▁छिमेक	-11.5316
▁क्रमिक	-11.5316
▁मरेका	-11.5317
▁सुगर	-11.5317
▁पुष्पा	-11.5318
▁लुकेर	-11.532
ंड	-11.5321
▁अनुपस्थित	-11.5322
▁प्रकाशमान	-11.5322
▁पिङ	-11.5323
▁आयोजनालाई	-11.5326
▁कन्ट्रोल	-11.5326
▁गरिएकी	-11.5327
▁गुजरात	-11.5328
▁भयावह	-11.5328
▁सूक्ष्म	-11.5328
▁रियालिटी	-11.5328
▁कान्ति	-11.533
▁प्रबल	-11.533
▁दशकअघि	-11.5331
▁हुनैपर्छ	-11.5332
▁सुनाइन्	-11.5336
▁हड्ताल	-11.5341
▁सोचेर	-11.5345
▁भरपुर	-11.5347
▁लाहुरे	-11.5348
रूप	-11.535
▁संरक्षणको	-11.5351
▁आले	-11.5352
▁पाँचौँ	-11.5352
लक	-11.5354
खानी	-11.5354
▁जोडिएर	-11.5355
▁तराईको	-11.5356
▁मिडियाको	-11.5359
▁विपद	-11.5359
बेल	-11.5362
▁पुनर्	-11.5363
▁सुने	-11.5364
▁नाप	-11.5364
▁कोड	-11.5364
▁भाग्न	-11.5364
▁बजेपछि	-11.5365
▁रावत	-11.5366
▁निधो	-11.5367
▁नस	-11.5367
▁पक्षसँग	-11.5373
▁आर्	-11.5376
▁बिताएका	-11.5377
▁गुम	-11.5377
▁रोप	-11.5379
▁जोगी	-11.5379
▁फ्रान्सेली	-11.538
▁समकालीन	-11.538
हरुलाइ	-11.5382
▁भयौं	-11.5383
▁छन्द	-11.5384
्टी	-11.5384
▁थोपा	-11.5385
▁देशभक्त	-11.5387
्दिन	-11.5387
▁अविवाहित	-11.5392
▁कम्युनिटी	-11.5392
▁वर्क	-11.5392
प्रो	-11.5392
▁वाङ	-11.5392
▁चिनजान	-11.5393
▁भाउजु	-11.5394
▁२०४९	-11.5395
ाएपछि	-11.5395
▁फण्ड	-11.5397
▁संघीयतामा	-11.54
▁भावनालाई	-11.5402
▁सक्तैन	-11.5402
▁निकाल	-11.5403
▁रोबोट	-11.5405
याङ	-11.5405
▁रुसको	-11.5406
▁सिनेमामा	-11.5407
साग	-11.541
▁भन्दैमा	-11.5411
▁मसान्त	-11.5411
▁स्वाधीनता	-11.5412
▁निजीक्षेत्र	-11.5413
▁हेर्नुहोस	-11.5413
▁उच्चतम	-11.5414
▁प्रेसर	-11.5414
▁बलात्कारी	-11.5414
▁करोडौँ	-11.5415
समयमा	-11.5416
▁रेक्टर	-11.5418
▁मध्यपहाडी	-11.5418
▁सम्भार	-11.5422
▁आफैँमा	-11.5429
▁सानातिना	-11.543
▁विचारको	-11.543
▁पञ्चाङ्ग	-11.543
▁सङ्	-11.543
त्री	-11.5432
▁थि	-11.5432
▁बिताउने	-11.5434
▁मन्त्रिपरिषद्ले	-11.5435
▁मोदीलाई	-11.5436
▁गुन	-11.5438
▁प्रवाहमा	-11.544
िग	-11.5441
▁नाउँमा	-11.5441
▁अरनिको	-11.5443
स्था	-11.5443
▁सन्दीपले	-11.5446
सेट	-11.5447
▁शोध	-11.5448
▁खाएका	-11.5449
नेट	-11.5449
▁पटेल	-11.5449
▁कोठाको	-11.545
▁प्रअ	-11.5452
६९	-11.5453
▁लागिपरेका	-11.5455
▁वासिङ्टन	-11.5456
▁अफिसियल	-11.5456
▁भित्तामा	-11.5457
▁धर्मावलम्बी	-11.5459
▁रातमा	-11.5463
▁लिदै	-11.5468
▁प्रिमियम	-11.5468
▁जन्मजयन्ती	-11.5469
उड	-11.547
▁प्रसस्त	-11.5471
▁पाण्डेय	-11.5471
▁प्याड	-11.5472
ुहुनेछ	-11.5474
ेत	-11.5477
▁नाटकमा	-11.5477
▁प्रयोगकर्ताको	-11.5479
▁कामकाज	-11.548
▁मतदाताको	-11.5481
▁थिएटर	-11.5486
▁पाइनेछ	-11.5487
केट	-11.5489
▁अपनाउनु	-11.549
▁सस्तोमा	-11.5493
▁लेखमा	-11.5494
▁उपरिक्षक	-11.5494
▁सिंचाइ	-11.5494
▁सुक्खा	-11.5494
▁सुहाउँदो	-11.5495
▁एएफसी	-11.5495
▁चाँहि	-11.5495
फ्	-11.5496
▁बत्ति	-11.5497
हट	-11.5498
▁हुनसकेको	-11.5499
▁नप	-11.5502
▁मिलाएको	-11.5502
▁छुवाछूत	-11.5507
▁मनोमानी	-11.5507
▁फिल्मी	-11.5511
▁ट्रष्ट	-11.5511
▁भोला	-11.5511
▁हरू	-11.5514
िदियो	-11.5518
▁हेटौडा	-11.552
▁आतुर	-11.5521
▁बदाम	-11.5522
▁प्रदर्शनको	-11.5522
▁ढु	-11.5525
▁लालबहादुर	-11.5526
▁हजारौ	-11.5527
▁हाम	-11.5528
प्रहरी	-11.553
▁घटक	-11.553
▁सिटौलाले	-11.553
▁बैठकपछि	-11.5531
▁सीधा	-11.5534
वासीले	-11.5535
▁कार्यले	-11.5536
वती	-11.5537
▁खोलेका	-11.5539
५५	-11.5542
▁चलाउनु	-11.5542
वापत	-11.5545
▁रोजाइमा	-11.5546
▁चालिसे	-11.5546
▁अद्यावधिक	-11.5546
▁ह्याट्रिक	-11.5546
मिक	-11.5547
▁खरानी	-11.5547
▁बिबाह	-11.5547
्याएको	-11.5548
ाइज	-11.5551
▁सन्तानलाई	-11.5553
्टि	-11.5553
मुग्लिन	-11.5554
▁रोकियो	-11.5555
▁वहाँ	-11.5556
▁वार्ताका	-11.5557
विक	-11.5557
▁डुङ्गा	-11.5559
▁हँुदा	-11.5559
▁जफत	-11.5559
३७	-11.5559
▁सर्वसाधारणका	-11.5563
▁मुद्रामा	-11.5563
णा	-11.5564
▁नगरपालिकालाई	-11.5565
▁बन्धन	-11.5566
▁विशेषतः	-11.5567
▁२०५०	-11.557
▁नआए	-11.5571
▁बैज्ञानिक	-11.5572
▁महँगी	-11.5572
▁चेम्बर	-11.5572
रस	-11.5572
▁चै	-11.5575
▁समाजसेवा	-11.5576
▁तारे	-11.5579
▁समयसीमा	-11.5582
▁ईन्	-11.5584
▁फिदिम	-11.5585
▁जर्ज	-11.5585
▁शानदार	-11.5585
▁समस्याहरू	-11.5585
▁एकाउन्ट	-11.5585
लय	-11.5586
▁पेन	-11.5586
▁भोग्न	-11.5587
▁ड्रेस	-11.5587
छाड	-11.5588
▁संभव	-11.5588
▁शब्दहरु	-11.5589
▁समेटिएका	-11.559
हरा	-11.5592
▁अपांग	-11.5592
▁गाएका	-11.5593
▁अबसरमा	-11.5594
▁मान्यतालाई	-11.5595
दश	-11.5597
▁प्रवद्र्धनमा	-11.5597
▁मनोरम	-11.5598
▁अडिसन	-11.5599
▁पोसाक	-11.5599
▁परम	-11.5604
▁सोधेको	-11.5605
▁बगाएर	-11.5605
▁सरिक	-11.5605
▁अध	-11.5607
▁सभ्यताको	-11.5608
▁व्यावसाय	-11.5609
▁चले	-11.5609
▁कोल	-11.561
▁आइपुगे	-11.561
▁निम्ती	-11.5611
▁तप्का	-11.5611
▁इत्यादि	-11.5611
▁ग्रसित	-11.5612
तै	-11.5615
▁वल	-11.5617
▁निन्दा	-11.5617
▁फ्री	-11.5621
▁चामलको	-11.5622
▁शैलेन्द्र	-11.5624
▁गाइ	-11.5625
▁सक्दैनौं	-11.5625
▁बालमैत्री	-11.5626
▁भएलगत्तै	-11.5626
▁स्कुलका	-11.5627
▁नेदरल्याण्ड	-11.5627
▁यिनीहरु	-11.5627
▁रहोस्	-11.5627
▁बाँड्न	-11.5628
टल	-11.563
▁दशौं	-11.5633
▁वादी	-11.5634
▁ु	-11.5634
साइ	-11.5634
▁निम्त्याउने	-11.5638
▁सुरुङमार्ग	-11.5638
▁नगरेर	-11.5638
वश	-11.5638
▁नाश	-11.5639
सात	-11.564
▁मारे	-11.5642
▁रहि	-11.5643
▁नख	-11.5644
▁शाखामा	-11.5645
▁पिपल	-11.5646
▁हस्तकला	-11.5648
▁गुराँस	-11.5651
मध्य	-11.5652
▁धर्मका	-11.5652
▁आमूल	-11.5652
▁हाबी	-11.5654
▁विकल्पमा	-11.5655
▁विश्वासमा	-11.5656
▁त्रैमासिक	-11.5656
▁निस्किएको	-11.5657
अर	-11.5659
मण्डल	-11.5661
▁आश्रय	-11.5662
▁प्रत्यक्षतर्फ	-11.5663
▁स्थगन	-11.5663
▁अपार्टमेन्ट	-11.5664
▁इसाई	-11.5664
▁सुनाउन	-11.5665
▁धरापमा	-11.567
छक्का	-11.5674
▁दोलखाको	-11.5674
▁गाइड	-11.5675
▁जग्गाधनी	-11.5677
फुल	-11.568
▁बाटोबाट	-11.5683
▁किल्ला	-11.5685
▁सम्प्रदाय	-11.569
▁माओ	-11.569
▁सेवाबाट	-11.569
▁डोर	-11.5695
▁खानामा	-11.5695
▁प्या	-11.5696
▁भ्याए	-11.5697
▁नगरका	-11.5698
▁च्या	-11.57
▁पराजुलीको	-11.5702
▁बताईन्	-11.5703
▁चिन्ने	-11.5704
▁लगाव	-11.5706
▁आएपनि	-11.5707
▁मन्त्रिपरिषदको	-11.5707
▁वितरणमा	-11.5709
▁हुनुपर्यो	-11.5714
६७	-11.5714
▁सिकेर	-11.5716
▁निर्बाचन	-11.5717
▁खस्दा	-11.5718
▁गुमाउँदै	-11.5719
▁सपनामा	-11.572
▁लगाइने	-11.5721
▁तमाम	-11.5722
▁कुराकानीको	-11.5722
्फ	-11.5723
▁बढाई	-11.5727
खेत	-11.5728
▁विक्रेता	-11.5729
▁सोमपाल	-11.5729
लाग्दो	-11.573
▁दृष्टिविहीन	-11.573
बाबा	-11.573
▁छोरीले	-11.5731
▁पाकिस्तानका	-11.5731
▁प्यारा	-11.5732
▁बिबाद	-11.5732
▁धनुषाको	-11.5732
▁झोल	-11.5735
▁साउनदेखि	-11.5735
्नुहोस्	-11.5736
▁श्रीमानले	-11.5737
▁खाइ	-11.5738
▁गोठमा	-11.5738
▁माइक्रोफाइनान्स	-11.5742
▁सान्त्वना	-11.5742
▁नातेदार	-11.5742
०७४	-11.5742
▁जनताबाट	-11.5743
▁पर्ख	-11.5744
▁सत्ताधारी	-11.5744
▁काटेको	-11.5744
▁स्वयंले	-11.5745
▁बनाइदिएको	-11.5745
▁झट्ट	-11.5745
तले	-11.5746
▁समुहको	-11.5748
▁आइतबारदेखि	-11.5748
▁बैंकहरु	-11.5748
▁युगको	-11.5749
▁उसो	-11.575
▁छनोटको	-11.5751
▁तिमीहरू	-11.5752
▁पाइरहेको	-11.5754
▁उल्लङ्घन	-11.5755
▁श्रमजीवी	-11.5756
▁गणतान्त्रिक	-11.5757
▁क्रोएसियाले	-11.576
▁तुल	-11.5762
▁ऐश्वर्य	-11.5765
▁चित्रकार	-11.5766
▁रहिआएको	-11.5769
▁पत्थर	-11.577
श्य	-11.5771
▁छुट्टी	-11.5774
▁तँ	-11.5774
▁कपको	-11.5774
▁पदाधिकारीको	-11.5774
▁गाउँगाउँमा	-11.5776
▁सम्मानमा	-11.5778
▁चौडा	-11.578
▁जीवनभर	-11.5781
▁पछिको	-11.5781
▁शृङ्खला	-11.5782
▁समाहित	-11.5782
▁समुहका	-11.5782
▁महेश्वर	-11.5783
▁फर्किएर	-11.5783
▁आहा	-11.5783
कता	-11.5784
▁श्रेणी	-11.5786
▁अन्त्यका	-11.5789
▁मृत्युपछि	-11.5791
खोलामा	-11.5792
▁तरंग	-11.5792
हाई	-11.5792
▁घु	-11.5792
▁भालु	-11.5792
▁माडी	-11.5793
▁खेम	-11.5794
▁खुसीको	-11.5794
▁जनप्रतिनिधिको	-11.5795
▁अग्रगामी	-11.5795
▁जनताप्रति	-11.5796
▁पानीका	-11.5799
▁क्लिनिक	-11.5799
▁सुरक्षाकर्मीले	-11.5803
▁रण	-11.5804
▁संगम	-11.5805
▁निधिले	-11.5806
▁फोर्स	-11.5806
▁मन्त्रीहरू	-11.5807
▁भयानक	-11.5809
▁एक्कासि	-11.5809
▁चिकित्सकहरू	-11.5809
▁डाँडामा	-11.5809
▁मंसीर	-11.5811
▁मिलेमतोमा	-11.5812
▁गरिरहने	-11.5816
▁मठ	-11.5817
▁तथ्यांकले	-11.5818
▁कार्यकालको	-11.5818
▁ज्या	-11.582
▁गुमाउन	-11.582
▁विखण्डन	-11.5821
▁चाउचाउ	-11.5822
▁जगदीश	-11.5822
▁प्रतिकृया	-11.5822
▁चुलो	-11.5825
रन	-11.5825
▁नसकी	-11.5825
ण्डी	-11.5825
ठे	-11.5829
रहनु	-11.5829
ुले	-11.583
▁बढ्नुपर्छ	-11.583
▁उत्रिएको	-11.5832
▁पटना	-11.5832
▁भइरहने	-11.5833
▁देशैभर	-11.5835
▁मौखिक	-11.5835
▁कावासोती	-11.5835
▁वासिन्दा	-11.5835
▁गरगहना	-11.5835
▁सक्नुहुनेछ	-11.5835
▁रेणु	-11.5835
▁आईजीपी	-11.5836
▁सघाउन	-11.5837
▁दोधारा	-11.584
▁जसअनुसार	-11.5841
▁जोड्दा	-11.5841
▁पर्यटकिय	-11.5845
किङ	-11.5845
▁वृद्धा	-11.5848
▁भ्रमणले	-11.5848
▁लोकदोहोरी	-11.5849
▁सूर्यविनायक	-11.5849
▁सञ्चित	-11.5849
▁चिहान	-11.5849
▁भ्वाइस	-11.5849
▁बगान	-11.5851
▁निजको	-11.5855
शे	-11.5855
▁पुगि	-11.5856
▁निम्ता	-11.5861
▁बहराइन	-11.5862
▁स्पेस	-11.5863
▁सम्झौताअनुसार	-11.5864
▁न्यूरो	-11.5865
▁प्रश	-11.5866
▁भेटेको	-11.5869
▁रक्षाका	-11.5872
▁मिले	-11.5873
▁कलाकारहरुले	-11.5873
▁खेलिरहेको	-11.5874
▁सुनाखरी	-11.5875
▁अनुसूची	-11.5875
▁मित्रराष्ट्र	-11.5876
ेग	-11.5877
▁भरिया	-11.5877
थर	-11.5878
रोड	-11.5878
▁चल्दैन	-11.588
▁यौनजन्य	-11.5882
▁कञ्चन	-11.5884
▁सर्च	-11.5884
▁विष्टलाई	-11.5884
▁समयअनुसार	-11.5886
▁लागेकी	-11.5887
▁जगाउने	-11.5887
▁प्रतिसेयर	-11.5889
फोन	-11.5892
▁मंसिरमा	-11.5892
▁पूर्णरूपमा	-11.5893
▁फैलाउन	-11.5894
▁ऐना	-11.5894
▁बोहोरा	-11.5897
नीय	-11.5898
▁भनेजस्तै	-11.5899
▁ठक्करबाट	-11.59
▁च्याप	-11.59
बस्ती	-11.5902
▁कालिमाटी	-11.5902
▁सुजाता	-11.5902
▁भूल	-11.5902
▁बिकाश	-11.5903
▁शान	-11.5905
▁रुपा	-11.5905
▁दिएँ	-11.5911
▁ढुंगानाले	-11.5911
▁सेवनले	-11.5911
▁यार्सा	-11.5916
▁भैँसी	-11.5916
▁फाइदाजनक	-11.5917
▁रुटमा	-11.5919
कट	-11.5919
▁आएमा	-11.592
▁नाडा	-11.5921
▁नाच्ने	-11.5921
▁गच्छदारले	-11.5922
▁बेल्जियमले	-11.5922
कस	-11.5922
▁सवैभन्दा	-11.5923
▁रोप्ने	-11.5923
▁देवीको	-11.5926
▁पसेको	-11.5926
▁आचार	-11.5928
▁एभिन्युज	-11.5929
▁प्रवन्ध	-11.593
▁खेलकुदको	-11.5931
▁चाल्न	-11.5931
▁जलाशय	-11.5933
▁राजनीतिका	-11.5933
▁उचाईमा	-11.5936
▁बाचा	-11.5937
▁तिव्र	-11.5937
▁बोगटी	-11.5937
▁तिमिल्सिना	-11.5937
▁महिलाहरूको	-11.5938
▁बाहिरको	-11.594
▁अनुबन्ध	-11.594
▁क्षत्री	-11.5941
▁विषयहरु	-11.5941
▁रोका	-11.5942
▁सालसम्म	-11.5943
▁गिद्ध	-11.5944
▁नरबहादुर	-11.5946
▁ख्रीष्ट	-11.5946
▁सेवासुविधा	-11.5947
▁दूर	-11.5947
▁तपाईँको	-11.5948
भयो	-11.5954
ेरा	-11.5955
▁स्वास्नी	-11.5956
▁सुविधासम्पन्न	-11.5957
▁राजालाई	-11.596
▁टू	-11.5962
▁टेबल	-11.5963
▁त्यसकै	-11.5963
▁सरोकारवालाहरु	-11.5964
▁चुलिएको	-11.5969
▁आत्मसमर्पण	-11.597
▁चनाखो	-11.597
▁धन्यबाद	-11.597
▁प्रतिरक्षा	-11.597
स्ती	-11.597
▁न्यूनिकरण	-11.5971
बन्दी	-11.5971
▁वर्गलाई	-11.5972
▁प्रती	-11.5972
▁ओलीसँग	-11.5973
▁कामदारका	-11.5975
तह	-11.5979
प्राप्त	-11.5981
▁खाल्डाखुल्डी	-11.5983
▁रोमान्टिक	-11.5983
▁प्रोफाइल	-11.5984
▁असहाय	-11.5984
▁थपेर	-11.5984
▁नराम्रा	-11.5984
▁खम्बा	-11.5985
▁केन्द्रबीच	-11.5993
उहाँ	-11.5994
▁ढुंगेल	-11.5997
▁नचाहने	-11.5998
▁नपुगेका	-11.5999
▁डेरी	-11.5999
▁अपवाद	-11.6005
▁एमालेबाट	-11.6005
▁मलको	-11.6008
▁!”	-11.6009
▁जित्दै	-11.601
▁श्रीपेच	-11.601
▁आन्द्रा	-11.6011
▁निकायसँग	-11.6013
जाने	-11.6014
▁भनाइमा	-11.6015
▁टाटा	-11.6015
▁बासिन्दालाई	-11.6016
▁पुनर्निर्माणको	-11.6018
▁हान्न	-11.6019
▁बुबाले	-11.6019
▁खस्ने	-11.602
▁एशोसिएसन	-11.6024
▁हवल्दार	-11.6024
▁उच्चारण	-11.6024
▁ठग	-11.6025
▁मंच	-11.6026
▁कर्मचारीका	-11.6027
▁अन्तरिक्ष	-11.6028
▁तम्घास	-11.6028
▁यस्तोमा	-11.6028
▁छलफलपछि	-11.603
सक्नु	-11.6031
ुभएन	-11.6035
▁अड	-11.6035
▁अचार	-11.6036
▁खुल	-11.6036
▁अपनत्व	-11.6037
▁दिनदिनै	-11.6037
▁प्रतितोला	-11.6038
लग	-11.6041
▁प्रावि	-11.6041
▁अहमद	-11.6041
▁पतिको	-11.6041
विच	-11.6043
▁पसेर	-11.6046
▁संविधानका	-11.6047
३६	-11.6048
▁डिप्रेसन	-11.6051
▁वर्षिया	-11.6052
▁सुर्खेतमा	-11.6052
▁आइपुग्ने	-11.6053
▁जेठी	-11.6057
▁झ्	-11.606
ाश	-11.606
सिटी	-11.606
तपाईं	-11.6063
▁फायर	-11.6064
▁जागीर	-11.6064
▁यिनीहरू	-11.6064
▁नगरसभा	-11.6064
▁उत्तेजना	-11.6065
▁पारस्परिक	-11.6065
▁सिङ्गापुर	-11.6065
▁ॐ	-11.6065
डब्लु	-11.6066
▁लिज	-11.6067
▁लम्सालले	-11.6067
▁अर्बको	-11.6067
▁यश	-11.6068
▁बस्नेतलाई	-11.6069
ग्रह	-11.6072
▁एकतामा	-11.6074
▁पौड्याल	-11.6074
▁ब्यूरो	-11.6074
प्त	-11.6075
▁परिर्वतन	-11.6078
▁दिपायल	-11.6078
▁श्रेय	-11.608
▁गर्नुहुनेछ	-11.6082
▁पीडितहरु	-11.6084
▁२०२२	-11.6086
▁शब्दहरू	-11.6086
▁सन्धी	-11.6087
्जा	-11.6087
▁सजायको	-11.6089
स्रोत	-11.609
▁रंगको	-11.6091
▁धकेल	-11.6093
▁बस्छ	-11.6093
▁कलैया	-11.6093
▁विसंगति	-11.6093
▁भूकम्पमा	-11.6093
▁सुवेदीको	-11.6093
▁सर्वोच्चमा	-11.6093
▁गौतमलाई	-11.6095
▁व्यक्तिमा	-11.6098
गान	-11.6098
▁बुट	-11.6099
▁योगेन्द्र	-11.61
▁शक्तिहरू	-11.6103
▁नेवा	-11.6105
▁ईतिहास	-11.6106
▁नबित्दै	-11.6106
▁कालेबुङ	-11.6106
▁असमझदारी	-11.6106
▁सहानुभूति	-11.6106
▁प्रबेश	-11.6106
▁निरपेक्ष	-11.6107
र्च	-11.6107
गण	-11.6107
▁सक्छौ	-11.6107
▁विन्दुमा	-11.6108
▁काङ्ग्रेसले	-11.611
▁गर्नुहुँदैन	-11.6113
ाइयो	-11.6115
▁मखमली	-11.6119
▁राधिका	-11.612
ढी	-11.6121
▁खटिने	-11.6121
िरहनु	-11.6121
▁मिचेर	-11.6121
▁लेभल	-11.6124
▁खोर	-11.6124
▁पुलमा	-11.6128
▁पिए	-11.6128
▁उठाउनु	-11.6129
▁देउसीभैलो	-11.6133
▁छालामा	-11.6134
▁मनिष	-11.6134
▁सिक्का	-11.6134
▁शेरचन	-11.6135
▁अनुपम	-11.6136
▁नियोजन	-11.6136
▁तत्पर	-11.6139
▁महान्यायाधिवक्त	-11.6141
ख्या	-11.6143
यत	-11.6144
▁दुनियाँमा	-11.6144
▁आयातित	-11.6144
▁डिन	-11.6145
▁डाइरेक्टर	-11.6147
▁च्यारिटी	-11.6147
▁उद्यान	-11.6147
▁दिल्लीको	-11.6149
लम	-11.6151
▁पस	-11.6152
▁प्रसन्न	-11.6152
न्य	-11.6156
रेस	-11.6156
▁नु	-11.6156
काठमाडौँ	-11.6156
आउट	-11.6157
▁बासी	-11.6157
ँदो	-11.6158
▁ससुरा	-11.6159
▁सकरात्मक	-11.6161
▁समुहमा	-11.6161
▁पाइरहेका	-11.6161
▁आमाबुबा	-11.6162
▁सपोर्ट	-11.6162
▁नियमावलीमा	-11.6162
▁फर्काउने	-11.6162
▁शङ्कर	-11.6163
▁समारोहका	-11.6164
▁चुनाब	-11.6166
▁भेल	-11.6167
▁गर्ला	-11.6167
२००	-11.6171
▁कभर	-11.6173
बर्ष	-11.6173
▁अपरिचित	-11.6174
▁निश्चल	-11.6174
▁विचाराधीन	-11.6175
▁राजनेता	-11.6175
▁दीपा	-11.6176
▁मौ	-11.6176
▁दंग	-11.6177
▁गंगामाया	-11.6177
▁अमेरिकाबाट	-11.6179
▁तोके	-11.6179
▁सेन्सर	-11.6184
▁सुट	-11.6185
▁दौरान	-11.6186
▁एकतालाई	-11.6187
▁डम्बर	-11.6187
▁निमन्त्रणामा	-11.6188
▁कम्प्लेक्स	-11.6188
▁साँढे	-11.6188
▁सूर्योदय	-11.6189
▁पोस्टर	-11.6189
▁पछ	-11.6189
▁म्या	-11.6189
▁धाम	-11.619
▁परियारले	-11.619
०५	-11.619
एक्स	-11.6191
▁आयकर	-11.6191
▁छोप	-11.6192
▁दुखाई	-11.6193
▁भलै	-11.6193
▁निरंकुश	-11.6194
▁साझेदारीमा	-11.6194
क्कै	-11.6195
▁पठन	-11.6195
▁छत्र	-11.6196
▁केकी	-11.6197
▁बसाइँ	-11.6199
▁जनसमुदाय	-11.6203
▁ओखर	-11.6203
▁त्यसैगरि	-11.6204
▁सार्वभौमिकता	-11.6204
▁किसानहरु	-11.6205
वडा	-11.6205
▁टिपेर	-11.6206
▁अनुदानको	-11.6207
▁संवेदनशीलता	-11.6208
▁महाराजगञ्ज	-11.6208
▁खोज्छ	-11.6208
▁सोचका	-11.6209
▁तामाङ्ग	-11.621
▁लगाइदिने	-11.621
▁पेस्तोल	-11.6211
▁बनाउदै	-11.6211
▁पत्रकारहरुको	-11.6214
▁संघियता	-11.6214
▁वार्षिकोत्सव	-11.6214
▁झिलिमिली	-11.6216
▁ब्याडमिन्टन	-11.6216
▁विहिबार	-11.6216
▁सार्वजानिक	-11.6216
▁उत्प्रेरित	-11.6216
▁एक्सप्रेस	-11.6216
▁एकोहोरो	-11.6216
▁मार्गदर्शन	-11.6217
▁सानी	-11.6217
▁खोजि	-11.6217
▁कालखण्डमा	-11.6217
▁मोती	-11.6217
▁थपिएका	-11.6225
▁हवाइ	-11.6228
▁डंगोल	-11.623
▁पुष्कर	-11.623
▁अलिअलि	-11.623
▁भिषा	-11.6231
▁हेर्नुस्	-11.6231
▁आकलन	-11.6231
▁केन्द्रविन्दु	-11.6231
▁मुकेश	-11.6232
▁बिमल	-11.6233
▁गरिव	-11.6234
▁खरिदमा	-11.6235
▁गर्नुहोस	-11.6235
▁संगठनमा	-11.6235
▁निर्मलाका	-11.624
▁वेपत्ता	-11.6244
▁सानिमा	-11.6244
▁प्लेन	-11.6247
ाउँ	-11.625
▁ग्रस्त	-11.6252
्नी	-11.6253
▁साई	-11.6254
▁चीनसँगको	-11.6256
▁गिरिराजमणि	-11.6258
न्या	-11.6259
▁टीभी	-11.626
सकेपछि	-11.6261
▁ढकालको	-11.6261
▁स्मृतिमा	-11.6262
▁दरबारमार्ग	-11.6263
▁डिपो	-11.6263
ाउँने	-11.6265
▁गजलकार	-11.6265
▁दरवार	-11.6266
▁भिडियोको	-11.6266
▁बोलाउन	-11.6269
▁अभिमुखीकरण	-11.6271
▁निरुपण	-11.6271
▁विजयादशमी	-11.6271
▁छुने	-11.6273
▁घरधनी	-11.6276
काली	-11.6276
▁सप	-11.628
▁चपेटामा	-11.628
▁बदलिएको	-11.6282
▁प्लान	-11.6283
▁जेठा	-11.6284
▁आठौँ	-11.6285
▁मी	-11.6285
▁मनग्गे	-11.6285
▁ल्याइएका	-11.6286
▁नर्वे	-11.6286
टिन	-11.6287
▁लक्ष्यमा	-11.6289
▁सक्दिनँ	-11.6291
▁प्रतिपदा	-11.6293
▁बाला	-11.6294
▁कागजमा	-11.6296
▁हट्ने	-11.6297
▁कम्पनीबाट	-11.6298
▁स्टाइल	-11.6299
रिन	-11.6299
▁साटासाट	-11.6299
▁मोरङका	-11.63
पर्छ	-11.63
▁एसईई	-11.63
्यै	-11.63
▁मूल्यको	-11.6302
▁टार्न	-11.6302
▁हाड	-11.6302
▁ब्रत	-11.6302
▁स्रोता	-11.6304
▁सबैसँग	-11.6304
▁गाईघाट	-11.6305
▁पागल	-11.6306
▁आदिका	-11.6308
▁फेस	-11.6308
▁स्थिती	-11.6308
▁भैसकेका	-11.6309
▁खराबी	-11.6309
एपछि	-11.631
▁वनको	-11.631
▁भारततर्फ	-11.631
▁पर्यावरण	-11.6312
▁भिक्षु	-11.6313
▁ग्रीन	-11.6314
▁परियोजनाका	-11.6314
वेद	-11.6315
▁डिल्लीराज	-11.6315
▁राष्टिय	-11.6315
▁तरकारीको	-11.6316
▁तोकिएका	-11.6318
▁पेय	-11.6318
याउनु	-11.6319
▁ब्यबस्थापन	-11.632
▁पहेँलो	-11.6327
▁स्वयंसेवक	-11.6328
▁भैरहेका	-11.6329
▁इस्लामिक	-11.6329
▁राख्यो	-11.6329
▁गरिदियो	-11.6331
▁दिनेछन्	-11.6333
▁मोडमा	-11.6336
▁गरिदिएका	-11.6338
▁पाँचजना	-11.6339
▁दिनानुदिन	-11.6341
▁खप्तड	-11.6342
▁सम्झौतापत्रमा	-11.6344
द्धय	-11.6344
्थ्यौं	-11.6345
▁एसियामा	-11.6345
▁सातौँ	-11.6346
▁बाँझो	-11.6349
वानी	-11.635
▁बुधबारदेखि	-11.635
▁संसदले	-11.6352
ेमा	-11.6354
▁गर्दिन	-11.6354
▁राकेश	-11.6356
▁घट्दो	-11.6356
▁भगवानको	-11.6358
▁चकलेट	-11.6361
४६	-11.6366
▁प्रदेशले	-11.6366
ड्	-11.6367
▁विवश	-11.6367
▁राखेप	-11.6367
▁नेम्वाङ	-11.6368
▁चलायमान	-11.637
▁अश्लील	-11.637
▁बूढा	-11.637
▁लेखापरीक्षण	-11.637
▁अनशनरत	-11.637
▁हतारमा	-11.6371
▁सावित्री	-11.6371
▁ब्वाइज	-11.6371
▁गुज्र	-11.6372
पत्रमा	-11.6372
▁मण्डलले	-11.6375
गढ	-11.6377
▁संघमा	-11.6381
बुझ	-11.6382
[...]
